{
  "version": "1.0",
  "truncation": {
    "direction": "Right",
    "max_length": 1024,
    "strategy": "LongestFirst",
    "stride": 0
  },
  "padding": {
    "strategy": "BatchLongest",
    "direction": "Right",
    "pad_to_multiple_of": null,
    "pad_id": 0,
    "pad_type_id": 0,
    "pad_token": "</s>"
  },
  "added_tokens": [
    {
      "id": 0,
      "content": "</s>",
      "single_word": false,
      "lstrip": false,
      "rstrip": false,
      "normalized": false,
      "special": true
    },
    {
      "id": 1,
      "content": "<extra_id_99>",
      "single_word": false,
      "lstrip": false,
      "rstrip": false,
      "normalized": false,
      "special": true
    },
    {
      "id": 2,
      "content": "<extra_id_98>",
      "single_word": false,
      "lstrip": false,
      "rstrip": false,
      "normalized": false,
      "special": true
    },
    {
      "id": 3,
      "content": "<extra_id_97>",
      "single_word": false,
      "lstrip": false,
      "rstrip": false,
      "normalized": false,
      "special": true
    },
    {
      "id": 4,
      "content": "<extra_id_96>",
      "single_word": false,
      "lstrip": false,
      "rstrip": false,
      "normalized": false,
      "special": true
    },
    {
      "id": 5,
      "content": "<extra_id_95>",
      "single_word": false,
      "lstrip": false,
      "rstrip": false,
      "normalized": false,
      "special": true
    },
    {
      "id": 6,
      "content": "<extra_id_94>",
      "single_word": false,
      "lstrip": false,
      "rstrip": false,
      "normalized": false,
      "special": true
    },
    {
      "id": 7,
      "content": "<extra_id_93>",
      "single_word": false,
      "lstrip": false,
      "rstrip": false,
      "normalized": false,
      "special": true
    },
    {
      "id": 8,
      "content": "<extra_id_92>",
      "single_word": false,
      "lstrip": false,
      "rstrip": false,
      "normalized": false,
      "special": true
    },
    {
      "id": 9,
      "content": "<extra_id_91>",
      "single_word": false,
      "lstrip": false,
      "rstrip": false,
      "normalized": false,
      "special": true
    },
    {
      "id": 10,
      "content": "<extra_id_90>",
      "single_word": false,
      "lstrip": false,
      "rstrip": false,
      "normalized": false,
      "special": true
    },
    {
      "id": 11,
      "content": "<extra_id_89>",
      "single_word": false,
      "lstrip": false,
      "rstrip": false,
      "normalized": false,
      "special": true
    },
    {
      "id": 12,
      "content": "<extra_id_88>",
      "single_word": false,
      "lstrip": false,
      "rstrip": false,
      "normalized": false,
      "special": true
    },
    {
      "id": 13,
      "content": "<extra_id_87>",
      "single_word": false,
      "lstrip": false,
      "rstrip": false,
      "normalized": false,
      "special": true
    },
    {
      "id": 14,
      "content": "<extra_id_86>",
      "single_word": false,
      "lstrip": false,
      "rstrip": false,
      "normalized": false,
      "special": true
    },
    {
      "id": 15,
      "content": "<extra_id_85>",
      "single_word": false,
      "lstrip": false,
      "rstrip": false,
      "normalized": false,
      "special": true
    },
    {
      "id": 16,
      "content": "<extra_id_84>",
      "single_word": false,
      "lstrip": false,
      "rstrip": false,
      "normalized": false,
      "special": true
    },
    {
      "id": 17,
      "content": "<extra_id_83>",
      "single_word": false,
      "lstrip": false,
      "rstrip": false,
      "normalized": false,
      "special": true
    },
    {
      "id": 18,
      "content": "<extra_id_82>",
      "single_word": false,
      "lstrip": false,
      "rstrip": false,
      "normalized": false,
      "special": true
    },
    {
      "id": 19,
      "content": "<extra_id_81>",
      "single_word": false,
      "lstrip": false,
      "rstrip": false,
      "normalized": false,
      "special": true
    },
    {
      "id": 20,
      "content": "<extra_id_80>",
      "single_word": false,
      "lstrip": false,
      "rstrip": false,
      "normalized": false,
      "special": true
    },
    {
      "id": 21,
      "content": "<extra_id_79>",
      "single_word": false,
      "lstrip": false,
      "rstrip": false,
      "normalized": false,
      "special": true
    },
    {
      "id": 22,
      "content": "<extra_id_78>",
      "single_word": false,
      "lstrip": false,
      "rstrip": false,
      "normalized": false,
      "special": true
    },
    {
      "id": 23,
      "content": "<extra_id_77>",
      "single_word": false,
      "lstrip": false,
      "rstrip": false,
      "normalized": false,
      "special": true
    },
    {
      "id": 24,
      "content": "<extra_id_76>",
      "single_word": false,
      "lstrip": false,
      "rstrip": false,
      "normalized": false,
      "special": true
    },
    {
      "id": 25,
      "content": "<extra_id_75>",
      "single_word": false,
      "lstrip": false,
      "rstrip": false,
      "normalized": false,
      "special": true
    },
    {
      "id": 26,
      "content": "<extra_id_74>",
      "single_word": false,
      "lstrip": false,
      "rstrip": false,
      "normalized": false,
      "special": true
    },
    {
      "id": 27,
      "content": "<extra_id_73>",
      "single_word": false,
      "lstrip": false,
      "rstrip": false,
      "normalized": false,
      "special": true
    },
    {
      "id": 28,
      "content": "<extra_id_72>",
      "single_word": false,
      "lstrip": false,
      "rstrip": false,
      "normalized": false,
      "special": true
    },
    {
      "id": 29,
      "content": "<extra_id_71>",
      "single_word": false,
      "lstrip": false,
      "rstrip": false,
      "normalized": false,
      "special": true
    },
    {
      "id": 30,
      "content": "<extra_id_70>",
      "single_word": false,
      "lstrip": false,
      "rstrip": false,
      "normalized": false,
      "special": true
    },
    {
      "id": 31,
      "content": "<extra_id_69>",
      "single_word": false,
      "lstrip": false,
      "rstrip": false,
      "normalized": false,
      "special": true
    },
    {
      "id": 32,
      "content": "<extra_id_68>",
      "single_word": false,
      "lstrip": false,
      "rstrip": false,
      "normalized": false,
      "special": true
    },
    {
      "id": 33,
      "content": "<extra_id_67>",
      "single_word": false,
      "lstrip": false,
      "rstrip": false,
      "normalized": false,
      "special": true
    },
    {
      "id": 34,
      "content": "<extra_id_66>",
      "single_word": false,
      "lstrip": false,
      "rstrip": false,
      "normalized": false,
      "special": true
    },
    {
      "id": 35,
      "content": "<extra_id_65>",
      "single_word": false,
      "lstrip": false,
      "rstrip": false,
      "normalized": false,
      "special": true
    },
    {
      "id": 36,
      "content": "<extra_id_64>",
      "single_word": false,
      "lstrip": false,
      "rstrip": false,
      "normalized": false,
      "special": true
    },
    {
      "id": 37,
      "content": "<extra_id_63>",
      "single_word": false,
      "lstrip": false,
      "rstrip": false,
      "normalized": false,
      "special": true
    },
    {
      "id": 38,
      "content": "<extra_id_62>",
      "single_word": false,
      "lstrip": false,
      "rstrip": false,
      "normalized": false,
      "special": true
    },
    {
      "id": 39,
      "content": "<extra_id_61>",
      "single_word": false,
      "lstrip": false,
      "rstrip": false,
      "normalized": false,
      "special": true
    },
    {
      "id": 40,
      "content": "<extra_id_60>",
      "single_word": false,
      "lstrip": false,
      "rstrip": false,
      "normalized": false,
      "special": true
    },
    {
      "id": 41,
      "content": "<extra_id_59>",
      "single_word": false,
      "lstrip": false,
      "rstrip": false,
      "normalized": false,
      "special": true
    },
    {
      "id": 42,
      "content": "<extra_id_58>",
      "single_word": false,
      "lstrip": false,
      "rstrip": false,
      "normalized": false,
      "special": true
    },
    {
      "id": 43,
      "content": "<extra_id_57>",
      "single_word": false,
      "lstrip": false,
      "rstrip": false,
      "normalized": false,
      "special": true
    },
    {
      "id": 44,
      "content": "<extra_id_56>",
      "single_word": false,
      "lstrip": false,
      "rstrip": false,
      "normalized": false,
      "special": true
    },
    {
      "id": 45,
      "content": "<extra_id_55>",
      "single_word": false,
      "lstrip": false,
      "rstrip": false,
      "normalized": false,
      "special": true
    },
    {
      "id": 46,
      "content": "<extra_id_54>",
      "single_word": false,
      "lstrip": false,
      "rstrip": false,
      "normalized": false,
      "special": true
    },
    {
      "id": 47,
      "content": "<extra_id_53>",
      "single_word": false,
      "lstrip": false,
      "rstrip": false,
      "normalized": false,
      "special": true
    },
    {
      "id": 48,
      "content": "<extra_id_52>",
      "single_word": false,
      "lstrip": false,
      "rstrip": false,
      "normalized": false,
      "special": true
    },
    {
      "id": 49,
      "content": "<extra_id_51>",
      "single_word": false,
      "lstrip": false,
      "rstrip": false,
      "normalized": false,
      "special": true
    },
    {
      "id": 50,
      "content": "<extra_id_50>",
      "single_word": false,
      "lstrip": false,
      "rstrip": false,
      "normalized": false,
      "special": true
    },
    {
      "id": 51,
      "content": "<extra_id_49>",
      "single_word": false,
      "lstrip": false,
      "rstrip": false,
      "normalized": false,
      "special": true
    },
    {
      "id": 52,
      "content": "<extra_id_48>",
      "single_word": false,
      "lstrip": false,
      "rstrip": false,
      "normalized": false,
      "special": true
    },
    {
      "id": 53,
      "content": "<extra_id_47>",
      "single_word": false,
      "lstrip": false,
      "rstrip": false,
      "normalized": false,
      "special": true
    },
    {
      "id": 54,
      "content": "<extra_id_46>",
      "single_word": false,
      "lstrip": false,
      "rstrip": false,
      "normalized": false,
      "special": true
    },
    {
      "id": 55,
      "content": "<extra_id_45>",
      "single_word": false,
      "lstrip": false,
      "rstrip": false,
      "normalized": false,
      "special": true
    },
    {
      "id": 56,
      "content": "<extra_id_44>",
      "single_word": false,
      "lstrip": false,
      "rstrip": false,
      "normalized": false,
      "special": true
    },
    {
      "id": 57,
      "content": "<extra_id_43>",
      "single_word": false,
      "lstrip": false,
      "rstrip": false,
      "normalized": false,
      "special": true
    },
    {
      "id": 58,
      "content": "<extra_id_42>",
      "single_word": false,
      "lstrip": false,
      "rstrip": false,
      "normalized": false,
      "special": true
    },
    {
      "id": 59,
      "content": "<extra_id_41>",
      "single_word": false,
      "lstrip": false,
      "rstrip": false,
      "normalized": false,
      "special": true
    },
    {
      "id": 60,
      "content": "<extra_id_40>",
      "single_word": false,
      "lstrip": false,
      "rstrip": false,
      "normalized": false,
      "special": true
    },
    {
      "id": 61,
      "content": "<extra_id_39>",
      "single_word": false,
      "lstrip": false,
      "rstrip": false,
      "normalized": false,
      "special": true
    },
    {
      "id": 62,
      "content": "<extra_id_38>",
      "single_word": false,
      "lstrip": false,
      "rstrip": false,
      "normalized": false,
      "special": true
    },
    {
      "id": 63,
      "content": "<extra_id_37>",
      "single_word": false,
      "lstrip": false,
      "rstrip": false,
      "normalized": false,
      "special": true
    },
    {
      "id": 64,
      "content": "<extra_id_36>",
      "single_word": false,
      "lstrip": false,
      "rstrip": false,
      "normalized": false,
      "special": true
    },
    {
      "id": 65,
      "content": "<extra_id_35>",
      "single_word": false,
      "lstrip": false,
      "rstrip": false,
      "normalized": false,
      "special": true
    },
    {
      "id": 66,
      "content": "<extra_id_34>",
      "single_word": false,
      "lstrip": false,
      "rstrip": false,
      "normalized": false,
      "special": true
    },
    {
      "id": 67,
      "content": "<extra_id_33>",
      "single_word": false,
      "lstrip": false,
      "rstrip": false,
      "normalized": false,
      "special": true
    },
    {
      "id": 68,
      "content": "<extra_id_32>",
      "single_word": false,
      "lstrip": false,
      "rstrip": false,
      "normalized": false,
      "special": true
    },
    {
      "id": 69,
      "content": "<extra_id_31>",
      "single_word": false,
      "lstrip": false,
      "rstrip": false,
      "normalized": false,
      "special": true
    },
    {
      "id": 70,
      "content": "<extra_id_30>",
      "single_word": false,
      "lstrip": false,
      "rstrip": false,
      "normalized": false,
      "special": true
    },
    {
      "id": 71,
      "content": "<extra_id_29>",
      "single_word": false,
      "lstrip": false,
      "rstrip": false,
      "normalized": false,
      "special": true
    },
    {
      "id": 72,
      "content": "<extra_id_28>",
      "single_word": false,
      "lstrip": false,
      "rstrip": false,
      "normalized": false,
      "special": true
    },
    {
      "id": 73,
      "content": "<extra_id_27>",
      "single_word": false,
      "lstrip": false,
      "rstrip": false,
      "normalized": false,
      "special": true
    },
    {
      "id": 74,
      "content": "<extra_id_26>",
      "single_word": false,
      "lstrip": false,
      "rstrip": false,
      "normalized": false,
      "special": true
    },
    {
      "id": 75,
      "content": "<extra_id_25>",
      "single_word": false,
      "lstrip": false,
      "rstrip": false,
      "normalized": false,
      "special": true
    },
    {
      "id": 76,
      "content": "<extra_id_24>",
      "single_word": false,
      "lstrip": false,
      "rstrip": false,
      "normalized": false,
      "special": true
    },
    {
      "id": 77,
      "content": "<extra_id_23>",
      "single_word": false,
      "lstrip": false,
      "rstrip": false,
      "normalized": false,
      "special": true
    },
    {
      "id": 78,
      "content": "<extra_id_22>",
      "single_word": false,
      "lstrip": false,
      "rstrip": false,
      "normalized": false,
      "special": true
    },
    {
      "id": 79,
      "content": "<extra_id_21>",
      "single_word": false,
      "lstrip": false,
      "rstrip": false,
      "normalized": false,
      "special": true
    },
    {
      "id": 80,
      "content": "<extra_id_20>",
      "single_word": false,
      "lstrip": false,
      "rstrip": false,
      "normalized": false,
      "special": true
    },
    {
      "id": 81,
      "content": "<extra_id_19>",
      "single_word": false,
      "lstrip": false,
      "rstrip": false,
      "normalized": false,
      "special": true
    },
    {
      "id": 82,
      "content": "<extra_id_18>",
      "single_word": false,
      "lstrip": false,
      "rstrip": false,
      "normalized": false,
      "special": true
    },
    {
      "id": 83,
      "content": "<extra_id_17>",
      "single_word": false,
      "lstrip": false,
      "rstrip": false,
      "normalized": false,
      "special": true
    },
    {
      "id": 84,
      "content": "<extra_id_16>",
      "single_word": false,
      "lstrip": false,
      "rstrip": false,
      "normalized": false,
      "special": true
    },
    {
      "id": 85,
      "content": "<extra_id_15>",
      "single_word": false,
      "lstrip": false,
      "rstrip": false,
      "normalized": false,
      "special": true
    },
    {
      "id": 86,
      "content": "<extra_id_14>",
      "single_word": false,
      "lstrip": false,
      "rstrip": false,
      "normalized": false,
      "special": true
    },
    {
      "id": 87,
      "content": "<extra_id_13>",
      "single_word": false,
      "lstrip": false,
      "rstrip": false,
      "normalized": false,
      "special": true
    },
    {
      "id": 88,
      "content": "<extra_id_12>",
      "single_word": false,
      "lstrip": false,
      "rstrip": false,
      "normalized": false,
      "special": true
    },
    {
      "id": 89,
      "content": "<extra_id_11>",
      "single_word": false,
      "lstrip": false,
      "rstrip": false,
      "normalized": false,
      "special": true
    },
    {
      "id": 90,
      "content": "<extra_id_10>",
      "single_word": false,
      "lstrip": false,
      "rstrip": false,
      "normalized": false,
      "special": true
    },
    {
      "id": 91,
      "content": "<extra_id_9>",
      "single_word": false,
      "lstrip": false,
      "rstrip": false,
      "normalized": false,
      "special": true
    },
    {
      "id": 92,
      "content": "<extra_id_8>",
      "single_word": false,
      "lstrip": false,
      "rstrip": false,
      "normalized": false,
      "special": true
    },
    {
      "id": 93,
      "content": "<extra_id_7>",
      "single_word": false,
      "lstrip": false,
      "rstrip": false,
      "normalized": false,
      "special": true
    },
    {
      "id": 94,
      "content": "<extra_id_6>",
      "single_word": false,
      "lstrip": false,
      "rstrip": false,
      "normalized": false,
      "special": true
    },
    {
      "id": 95,
      "content": "<extra_id_5>",
      "single_word": false,
      "lstrip": false,
      "rstrip": false,
      "normalized": false,
      "special": true
    },
    {
      "id": 96,
      "content": "<extra_id_4>",
      "single_word": false,
      "lstrip": false,
      "rstrip": false,
      "normalized": false,
      "special": true
    },
    {
      "id": 97,
      "content": "<extra_id_3>",
      "single_word": false,
      "lstrip": false,
      "rstrip": false,
      "normalized": false,
      "special": true
    },
    {
      "id": 98,
      "content": "<extra_id_2>",
      "single_word": false,
      "lstrip": false,
      "rstrip": false,
      "normalized": false,
      "special": true
    },
    {
      "id": 99,
      "content": "<extra_id_1>",
      "single_word": false,
      "lstrip": false,
      "rstrip": false,
      "normalized": false,
      "special": true
    },
    {
      "id": 100,
      "content": "<extra_id_0>",
      "single_word": false,
      "lstrip": false,
      "rstrip": false,
      "normalized": false,
      "special": true
    },
    {
      "id": 101,
      "content": "0",
      "single_word": false,
      "lstrip": false,
      "rstrip": false,
      "normalized": false,
      "special": true
    },
    {
      "id": 102,
      "content": "1",
      "single_word": false,
      "lstrip": false,
      "rstrip": false,
      "normalized": false,
      "special": true
    },
    {
      "id": 103,
      "content": "2",
      "single_word": false,
      "lstrip": false,
      "rstrip": false,
      "normalized": false,
      "special": true
    },
    {
      "id": 104,
      "content": "3",
      "single_word": false,
      "lstrip": false,
      "rstrip": false,
      "normalized": false,
      "special": true
    },
    {
      "id": 105,
      "content": "4",
      "single_word": false,
      "lstrip": false,
      "rstrip": false,
      "normalized": false,
      "special": true
    },
    {
      "id": 106,
      "content": "5",
      "single_word": false,
      "lstrip": false,
      "rstrip": false,
      "normalized": false,
      "special": true
    },
    {
      "id": 107,
      "content": "6",
      "single_word": false,
      "lstrip": false,
      "rstrip": false,
      "normalized": false,
      "special": true
    },
    {
      "id": 108,
      "content": "7",
      "single_word": false,
      "lstrip": false,
      "rstrip": false,
      "normalized": false,
      "special": true
    },
    {
      "id": 109,
      "content": "8",
      "single_word": false,
      "lstrip": false,
      "rstrip": false,
      "normalized": false,
      "special": true
    },
    {
      "id": 110,
      "content": "9",
      "single_word": false,
      "lstrip": false,
      "rstrip": false,
      "normalized": false,
      "special": true
    }
  ],
  "normalizer": null,
  "pre_tokenizer": {
    "type": "Whitespace"
  },
  "post_processor": {
    "type": "TemplateProcessing",
    "single": [
      {
        "Sequence": {
          "id": "A",
          "type_id": 0
        }
      },
      {
        "SpecialToken": {
          "id": "</s>",
          "type_id": 0
        }
      }
    ],
    "pair": [
      {
        "Sequence": {
          "id": "A",
          "type_id": 0
        }
      },
      {
        "SpecialToken": {
          "id": "</s>",
          "type_id": 0
        }
      },
      {
        "Sequence": {
          "id": "B",
          "type_id": 0
        }
      },
      {
        "SpecialToken": {
          "id": "</s>",
          "type_id": 0
        }
      }
    ],
    "special_tokens": {
      "</s>": {
        "id": "</s>",
        "ids": [
          0
        ],
        "tokens": [
          "</s>"
        ]
      }
    }
  },
  "decoder": null,
  "model": {
    "type": "BPE",
    "dropout": null,
    "unk_token": null,
    "continuing_subword_prefix": null,
    "end_of_word_suffix": null,
    "fuse_unk": false,
    "byte_fallback": true,
    "vocab": {
      "</s>": 0,
      "<extra_id_99>": 1,
      "<extra_id_98>": 2,
      "<extra_id_97>": 3,
      "<extra_id_96>": 4,
      "<extra_id_95>": 5,
      "<extra_id_94>": 6,
      "<extra_id_93>": 7,
      "<extra_id_92>": 8,
      "<extra_id_91>": 9,
      "<extra_id_90>": 10,
      "<extra_id_89>": 11,
      "<extra_id_88>": 12,
      "<extra_id_87>": 13,
      "<extra_id_86>": 14,
      "<extra_id_85>": 15,
      "<extra_id_84>": 16,
      "<extra_id_83>": 17,
      "<extra_id_82>": 18,
      "<extra_id_81>": 19,
      "<extra_id_80>": 20,
      "<extra_id_79>": 21,
      "<extra_id_78>": 22,
      "<extra_id_77>": 23,
      "<extra_id_76>": 24,
      "<extra_id_75>": 25,
      "<extra_id_74>": 26,
      "<extra_id_73>": 27,
      "<extra_id_72>": 28,
      "<extra_id_71>": 29,
      "<extra_id_70>": 30,
      "<extra_id_69>": 31,
      "<extra_id_68>": 32,
      "<extra_id_67>": 33,
      "<extra_id_66>": 34,
      "<extra_id_65>": 35,
      "<extra_id_64>": 36,
      "<extra_id_63>": 37,
      "<extra_id_62>": 38,
      "<extra_id_61>": 39,
      "<extra_id_60>": 40,
      "<extra_id_59>": 41,
      "<extra_id_58>": 42,
      "<extra_id_57>": 43,
      "<extra_id_56>": 44,
      "<extra_id_55>": 45,
      "<extra_id_54>": 46,
      "<extra_id_53>": 47,
      "<extra_id_52>": 48,
      "<extra_id_51>": 49,
      "<extra_id_50>": 50,
      "<extra_id_49>": 51,
      "<extra_id_48>": 52,
      "<extra_id_47>": 53,
      "<extra_id_46>": 54,
      "<extra_id_45>": 55,
      "<extra_id_44>": 56,
      "<extra_id_43>": 57,
      "<extra_id_42>": 58,
      "<extra_id_41>": 59,
      "<extra_id_40>": 60,
      "<extra_id_39>": 61,
      "<extra_id_38>": 62,
      "<extra_id_37>": 63,
      "<extra_id_36>": 64,
      "<extra_id_35>": 65,
      "<extra_id_34>": 66,
      "<extra_id_33>": 67,
      "<extra_id_32>": 68,
      "<extra_id_31>": 69,
      "<extra_id_30>": 70,
      "<extra_id_29>": 71,
      "<extra_id_28>": 72,
      "<extra_id_27>": 73,
      "<extra_id_26>": 74,
      "<extra_id_25>": 75,
      "<extra_id_24>": 76,
      "<extra_id_23>": 77,
      "<extra_id_22>": 78,
      "<extra_id_21>": 79,
      "<extra_id_20>": 80,
      "<extra_id_19>": 81,
      "<extra_id_18>": 82,
      "<extra_id_17>": 83,
      "<extra_id_16>": 84,
      "<extra_id_15>": 85,
      "<extra_id_14>": 86,
      "<extra_id_13>": 87,
      "<extra_id_12>": 88,
      "<extra_id_11>": 89,
      "<extra_id_10>": 90,
      "<extra_id_9>": 91,
      "<extra_id_8>": 92,
      "<extra_id_7>": 93,
      "<extra_id_6>": 94,
      "<extra_id_5>": 95,
      "<extra_id_4>": 96,
      "<extra_id_3>": 97,
      "<extra_id_2>": 98,
      "<extra_id_1>": 99,
      "<extra_id_0>": 100,
      "0": 101,
      "1": 102,
      "2": 103,
      "3": 104,
      "4": 105,
      "5": 106,
      "6": 107,
      "7": 108,
      "8": 109,
      "9": 110,
      "!": 111,
      "\"": 112,
      "#": 113,
      "$": 114,
      "%": 115,
      "&": 116,
      "'": 117,
      "(": 118,
      ")": 119,
      "*": 120,
      "+": 121,
      ",": 122,
      "-": 123,
      ".": 124,
      "/": 125,
      ":": 126,
      ";": 127,
      "<": 128,
      "=": 129,
      ">": 130,
      "?": 131,
      "@": 132,
      "A": 133,
      "B": 134,
      "C": 135,
      "D": 136,
      "E": 137,
      "F": 138,
      "G": 139,
      "H": 140,
      "I": 141,
      "J": 142,
      "K": 143,
      "L": 144,
      "M": 145,
      "N": 146,
      "O": 147,
      "P": 148,
      "Q": 149,
      "R": 150,
      "S": 151,
      "T": 152,
      "U": 153,
      "V": 154,
      "W": 155,
      "X": 156,
      "Y": 157,
      "Z": 158,
      "[": 159,
      "\\": 160,
      "]": 161,
      "^": 162,
      "_": 163,
      "`": 164,
      "a": 165,
      "b": 166,
      "c": 167,
      "d": 168,
      "e": 169,
      "f": 170,
      "g": 171,
      "h": 172,
      "i": 173,
      "j": 174,
      "k": 175,
      "l": 176,
      "m": 177,
      "n": 178,
      "o": 179,
      "p": 180,
      "q": 181,
      "r": 182,
      "s": 183,
      "t": 184,
      "u": 185,
      "v": 186,
      "w": 187,
      "x": 188,
      "y": 189,
      "z": 190,
      "{": 191,
      "|": 192,
      "}": 193,
      "~": 194,
      "": 195,
      "": 196,
      "": 197,
      "": 198,
      "": 199,
      "": 200,
      "¡": 201,
      "¢": 202,
      "£": 203,
      "¤": 204,
      "¥": 205,
      "§": 206,
      "©": 207,
      "«": 208,
      "­": 209,
      "®": 210,
      "¯": 211,
      "°": 212,
      "±": 213,
      "²": 214,
      "³": 215,
      "´": 216,
      "µ": 217,
      "¶": 218,
      "·": 219,
      "¹": 220,
      "º": 221,
      "»": 222,
      "¼": 223,
      "½": 224,
      "¾": 225,
      "¿": 226,
      "À": 227,
      "Á": 228,
      "Â": 229,
      "Ä": 230,
      "Å": 231,
      "Æ": 232,
      "Ç": 233,
      "È": 234,
      "É": 235,
      "Ê": 236,
      "Ë": 237,
      "Ì": 238,
      "Í": 239,
      "Î": 240,
      "Ï": 241,
      "Ð": 242,
      "Ñ": 243,
      "Ò": 244,
      "Ó": 245,
      "Ô": 246,
      "Õ": 247,
      "Ö": 248,
      "×": 249,
      "Ø": 250,
      "Ù": 251,
      "Ú": 252,
      "Ü": 253,
      "Ý": 254,
      "Þ": 255,
      "ß": 256,
      "à": 257,
      "á": 258,
      "â": 259,
      "ã": 260,
      "ä": 261,
      "å": 262,
      "æ": 263,
      "ç": 264,
      "è": 265,
      "é": 266,
      "ê": 267,
      "ë": 268,
      "ì": 269,
      "í": 270,
      "î": 271,
      "ï": 272,
      "ð": 273,
      "ñ": 274,
      "ò": 275,
      "ó": 276,
      "ô": 277,
      "õ": 278,
      "ö": 279,
      "÷": 280,
      "ø": 281,
      "ù": 282,
      "ú": 283,
      "û": 284,
      "ü": 285,
      "ý": 286,
      "þ": 287,
      "ÿ": 288,
      "Ā": 289,
      "ā": 290,
      "Ă": 291,
      "ă": 292,
      "ą": 293,
      "Ć": 294,
      "ć": 295,
      "ĉ": 296,
      "Ċ": 297,
      "ċ": 298,
      "Č": 299,
      "č": 300,
      "Ď": 301,
      "ď": 302,
      "Đ": 303,
      "đ": 304,
      "Ē": 305,
      "ē": 306,
      "Ĕ": 307,
      "ĕ": 308,
      "Ė": 309,
      "ė": 310,
      "ę": 311,
      "Ě": 312,
      "ě": 313,
      "ğ": 314,
      "Ġ": 315,
      "ġ": 316,
      "Ģ": 317,
      "ģ": 318,
      "Ĥ": 319,
      "Ħ": 320,
      "ħ": 321,
      "ĩ": 322,
      "Ī": 323,
      "ī": 324,
      "ĭ": 325,
      "į": 326,
      "İ": 327,
      "ı": 328,
      "ĵ": 329,
      "Ķ": 330,
      "ķ": 331,
      "ĸ": 332,
      "ĺ": 333,
      "ļ": 334,
      "Ľ": 335,
      "ľ": 336,
      "Ł": 337,
      "ł": 338,
      "ń": 339,
      "ņ": 340,
      "ň": 341,
      "Ŋ": 342,
      "ŋ": 343,
      "Ō": 344,
      "ō": 345,
      "ŏ": 346,
      "ő": 347,
      "Œ": 348,
      "œ": 349,
      "Ŗ": 350,
      "ŗ": 351,
      "Ř": 352,
      "ř": 353,
      "Ś": 354,
      "ś": 355,
      "Ŝ": 356,
      "Ş": 357,
      "ş": 358,
      "Š": 359,
      "š": 360,
      "Ţ": 361,
      "ţ": 362,
      "ť": 363,
      "ŧ": 364,
      "ũ": 365,
      "Ū": 366,
      "ū": 367,
      "ŭ": 368,
      "ů": 369,
      "ű": 370,
      "ų": 371,
      "ŵ": 372,
      "ŷ": 373,
      "Ź": 374,
      "ź": 375,
      "Ż": 376,
      "ż": 377,
      "Ž": 378,
      "ž": 379,
      "ſ": 380,
      "ƀ": 381,
      "Ɔ": 382,
      "Ƈ": 383,
      "ƈ": 384,
      "Ɖ": 385,
      "ƍ": 386,
      "Ǝ": 387,
      "Ə": 388,
      "Ɛ": 389,
      "ƒ": 390,
      "Ɣ": 391,
      "ƙ": 392,
      "ƛ": 393,
      "ơ": 394,
      "Ƣ": 395,
      "ƥ": 396,
      "ƭ": 397,
      "ư": 398,
      "Ʋ": 399,
      "ƿ": 400,
      "ǀ": 401,
      "ǁ": 402,
      "ǂ": 403,
      "ǃ": 404,
      "ǎ": 405,
      "ǐ": 406,
      "Ǒ": 407,
      "ǒ": 408,
      "ǔ": 409,
      "ǚ": 410,
      "ǜ": 411,
      "ǝ": 412,
      "Ǣ": 413,
      "ǣ": 414,
      "Ǧ": 415,
      "ǧ": 416,
      "Ǫ": 417,
      "ǫ": 418,
      "ǭ": 419,
      "ǰ": 420,
      "ǵ": 421,
      "Ƿ": 422,
      "Ǹ": 423,
      "ǹ": 424,
      "ǽ": 425,
      "Ș": 426,
      "ș": 427,
      "Ț": 428,
      "ț": 429,
      "Ȝ": 430,
      "ȝ": 431,
      "ȟ": 432,
      "ȯ": 433,
      "ȳ": 434,
      "ȷ": 435,
      "ȼ": 436,
      "Ɉ": 437,
      "ɐ": 438,
      "ɑ": 439,
      "ɒ": 440,
      "ɓ": 441,
      "ɔ": 442,
      "ɕ": 443,
      "ɖ": 444,
      "ɗ": 445,
      "ɘ": 446,
      "ə": 447,
      "ɚ": 448,
      "ɛ": 449,
      "ɜ": 450,
      "ɞ": 451,
      "ɟ": 452,
      "ɠ": 453,
      "ɡ": 454,
      "ɢ": 455,
      "ɣ": 456,
      "ɤ": 457,
      "ɥ": 458,
      "ɦ": 459,
      "ɧ": 460,
      "ɨ": 461,
      "ɪ": 462,
      "ɫ": 463,
      "ɬ": 464,
      "ɭ": 465,
      "ɮ": 466,
      "ɯ": 467,
      "ɰ": 468,
      "ɱ": 469,
      "ɲ": 470,
      "ɳ": 471,
      "ɴ": 472,
      "ɵ": 473,
      "ɶ": 474,
      "ɷ": 475,
      "ɸ": 476,
      "ɹ": 477,
      "ɺ": 478,
      "ɻ": 479,
      "ɽ": 480,
      "ɾ": 481,
      "ʀ": 482,
      "ʁ": 483,
      "ʂ": 484,
      "ʃ": 485,
      "ʄ": 486,
      "ʇ": 487,
      "ʈ": 488,
      "ʉ": 489,
      "ʊ": 490,
      "ʋ": 491,
      "ʌ": 492,
      "ʍ": 493,
      "ʎ": 494,
      "ʏ": 495,
      "ʐ": 496,
      "ʑ": 497,
      "ʒ": 498,
      "ʔ": 499,
      "ʕ": 500,
      "ʖ": 501,
      "ʗ": 502,
      "ʘ": 503,
      "ʙ": 504,
      "ʛ": 505,
      "ʝ": 506,
      "ʟ": 507,
      "ʠ": 508,
      "ʡ": 509,
      "ʢ": 510,
      "ʰ": 511,
      "ʱ": 512,
      "ʲ": 513,
      "ʳ": 514,
      "ʷ": 515,
      "ʹ": 516,
      "ʻ": 517,
      "ʼ": 518,
      "ʽ": 519,
      "ʾ": 520,
      "ʿ": 521,
      "ˀ": 522,
      "ˁ": 523,
      "ˆ": 524,
      "ˇ": 525,
      "ˈ": 526,
      "ˌ": 527,
      "ː": 528,
      "ˑ": 529,
      "˔": 530,
      "˕": 531,
      "˖": 532,
      "˘": 533,
      "˚": 534,
      "˜": 535,
      "˞": 536,
      "ˠ": 537,
      "ˢ": 538,
      "ˣ": 539,
      "ˤ": 540,
      "˥": 541,
      "˦": 542,
      "˧": 543,
      "˨": 544,
      "˩": 545,
      "̀": 546,
      "́": 547,
      "̂": 548,
      "̃": 549,
      "̄": 550,
      "̆": 551,
      "̇": 552,
      "̈": 553,
      "̊": 554,
      "̋": 555,
      "̌": 556,
      "̍": 557,
      "̏": 558,
      "̐": 559,
      "̑": 560,
      "̖": 561,
      "̗": 562,
      "̚": 563,
      "̝": 564,
      "̞": 565,
      "̟": 566,
      "̠": 567,
      "̣": 568,
      "̤": 569,
      "̥": 570,
      "̧": 571,
      "̩": 572,
      "̪": 573,
      "̬": 574,
      "̮": 575,
      "̯": 576,
      "̰": 577,
      "̱": 578,
      "̲": 579,
      "̳": 580,
      "̺": 581,
      "̽": 582,
      "͌": 583,
      "͍": 584,
      "͘": 585,
      "͜": 586,
      "͡": 587,
      "΄": 588,
      "Ά": 589,
      "Έ": 590,
      "Ή": 591,
      "Ί": 592,
      "Ό": 593,
      "Ύ": 594,
      "ΐ": 595,
      "Α": 596,
      "Β": 597,
      "Γ": 598,
      "Δ": 599,
      "Ε": 600,
      "Ζ": 601,
      "Η": 602,
      "Θ": 603,
      "Ι": 604,
      "Κ": 605,
      "Λ": 606,
      "Μ": 607,
      "Ν": 608,
      "Ξ": 609,
      "Ο": 610,
      "Π": 611,
      "Ρ": 612,
      "Σ": 613,
      "Τ": 614,
      "Υ": 615,
      "Φ": 616,
      "Χ": 617,
      "Ψ": 618,
      "Ω": 619,
      "ά": 620,
      "έ": 621,
      "ή": 622,
      "ί": 623,
      "α": 624,
      "β": 625,
      "γ": 626,
      "δ": 627,
      "ε": 628,
      "ζ": 629,
      "η": 630,
      "θ": 631,
      "ι": 632,
      "κ": 633,
      "λ": 634,
      "μ": 635,
      "ν": 636,
      "ξ": 637,
      "ο": 638,
      "π": 639,
      "ρ": 640,
      "ς": 641,
      "σ": 642,
      "τ": 643,
      "υ": 644,
      "φ": 645,
      "χ": 646,
      "ψ": 647,
      "ω": 648,
      "ϊ": 649,
      "ό": 650,
      "ύ": 651,
      "ώ": 652,
      "ϑ": 653,
      "ϕ": 654,
      "ϝ": 655,
      "ϟ": 656,
      "ϵ": 657,
      "Ђ": 658,
      "Є": 659,
      "І": 660,
      "Ї": 661,
      "Ј": 662,
      "Љ": 663,
      "Ћ": 664,
      "А": 665,
      "Б": 666,
      "В": 667,
      "Г": 668,
      "Д": 669,
      "Е": 670,
      "Ж": 671,
      "З": 672,
      "И": 673,
      "Й": 674,
      "К": 675,
      "Л": 676,
      "М": 677,
      "Н": 678,
      "О": 679,
      "П": 680,
      "Р": 681,
      "С": 682,
      "Т": 683,
      "У": 684,
      "Ф": 685,
      "Х": 686,
      "Ц": 687,
      "Ч": 688,
      "Ш": 689,
      "Щ": 690,
      "Ъ": 691,
      "Ы": 692,
      "Ь": 693,
      "Э": 694,
      "Ю": 695,
      "Я": 696,
      "а": 697,
      "б": 698,
      "в": 699,
      "г": 700,
      "д": 701,
      "е": 702,
      "ж": 703,
      "з": 704,
      "и": 705,
      "й": 706,
      "к": 707,
      "л": 708,
      "м": 709,
      "н": 710,
      "о": 711,
      "п": 712,
      "р": 713,
      "с": 714,
      "т": 715,
      "у": 716,
      "ф": 717,
      "х": 718,
      "ц": 719,
      "ч": 720,
      "ш": 721,
      "щ": 722,
      "ъ": 723,
      "ы": 724,
      "ь": 725,
      "э": 726,
      "ю": 727,
      "я": 728,
      "ё": 729,
      "ђ": 730,
      "є": 731,
      "і": 732,
      "ї": 733,
      "ј": 734,
      "љ": 735,
      "њ": 736,
      "ћ": 737,
      "ѝ": 738,
      "ў": 739,
      "Ѡ": 740,
      "ѡ": 741,
      "Ѣ": 742,
      "ѣ": 743,
      "ѥ": 744,
      "ѧ": 745,
      "Ѯ": 746,
      "ѹ": 747,
      "҆": 748,
      "ғ": 749,
      "қ": 750,
      "ү": 751,
      "ҳ": 752,
      "ҷ": 753,
      "ӣ": 754,
      "Ө": 755,
      "ө": 756,
      "ӯ": 757,
      "Ӷ": 758,
      "ӷ": 759,
      "Ա": 760,
      "Բ": 761,
      "Գ": 762,
      "Դ": 763,
      "Ե": 764,
      "Զ": 765,
      "Է": 766,
      "Ը": 767,
      "Թ": 768,
      "Ժ": 769,
      "Ի": 770,
      "Լ": 771,
      "Խ": 772,
      "Կ": 773,
      "Հ": 774,
      "Ձ": 775,
      "Ղ": 776,
      "Ճ": 777,
      "Մ": 778,
      "Յ": 779,
      "Ն": 780,
      "Շ": 781,
      "Ո": 782,
      "Պ": 783,
      "Ջ": 784,
      "Ռ": 785,
      "Ս": 786,
      "Վ": 787,
      "Տ": 788,
      "Փ": 789,
      "Ք": 790,
      "Օ": 791,
      "ա": 792,
      "բ": 793,
      "գ": 794,
      "դ": 795,
      "ե": 796,
      "զ": 797,
      "է": 798,
      "ը": 799,
      "թ": 800,
      "ժ": 801,
      "ի": 802,
      "լ": 803,
      "խ": 804,
      "ծ": 805,
      "կ": 806,
      "հ": 807,
      "ձ": 808,
      "ղ": 809,
      "ճ": 810,
      "մ": 811,
      "յ": 812,
      "ն": 813,
      "շ": 814,
      "ո": 815,
      "չ": 816,
      "պ": 817,
      "ջ": 818,
      "ռ": 819,
      "ս": 820,
      "վ": 821,
      "տ": 822,
      "ր": 823,
      "ց": 824,
      "ւ": 825,
      "փ": 826,
      "ք": 827,
      "օ": 828,
      "և": 829,
      "֤": 830,
      "֫": 831,
      "ְ": 832,
      "ֱ": 833,
      "ֲ": 834,
      "ֳ": 835,
      "ִ": 836,
      "ֵ": 837,
      "ֶ": 838,
      "ַ": 839,
      "ָ": 840,
      "ֹ": 841,
      "ֻ": 842,
      "ּ": 843,
      "ֽ": 844,
      "ֿ": 845,
      "ׁ": 846,
      "ׂ": 847,
      "א": 848,
      "ב": 849,
      "ג": 850,
      "ד": 851,
      "ה": 852,
      "ו": 853,
      "ז": 854,
      "ח": 855,
      "ט": 856,
      "י": 857,
      "ך": 858,
      "כ": 859,
      "ל": 860,
      "ם": 861,
      "מ": 862,
      "ן": 863,
      "נ": 864,
      "ס": 865,
      "ע": 866,
      "ף": 867,
      "פ": 868,
      "ץ": 869,
      "צ": 870,
      "ק": 871,
      "ר": 872,
      "ש": 873,
      "ת": 874,
      "ױ": 875,
      "׳": 876,
      "،": 877,
      "ء": 878,
      "آ": 879,
      "أ": 880,
      "ؤ": 881,
      "إ": 882,
      "ئ": 883,
      "ا": 884,
      "ب": 885,
      "ة": 886,
      "ت": 887,
      "ث": 888,
      "ج": 889,
      "ح": 890,
      "خ": 891,
      "د": 892,
      "ذ": 893,
      "ر": 894,
      "ز": 895,
      "س": 896,
      "ش": 897,
      "ص": 898,
      "ض": 899,
      "ط": 900,
      "ظ": 901,
      "ع": 902,
      "غ": 903,
      "ـ": 904,
      "ف": 905,
      "ق": 906,
      "ك": 907,
      "ل": 908,
      "م": 909,
      "ن": 910,
      "ه": 911,
      "و": 912,
      "ى": 913,
      "ي": 914,
      "ً": 915,
      "ٌ": 916,
      "ٍ": 917,
      "َ": 918,
      "ُ": 919,
      "ِ": 920,
      "ّ": 921,
      "ْ": 922,
      "ٔ": 923,
      "١": 924,
      "٧": 925,
      "ٰ": 926,
      "پ": 927,
      "چ": 928,
      "ڈ": 929,
      "ڠ": 930,
      "ک": 931,
      "ڬ": 932,
      "گ": 933,
      "ں": 934,
      "ھ": 935,
      "ہ": 936,
      "ی": 937,
      "ۍ": 938,
      "ے": 939,
      "ە": 940,
      "ܐ": 941,
      "ܒ": 942,
      "ܔ": 943,
      "ܕ": 944,
      "ܗ": 945,
      "ܘ": 946,
      "ܙ": 947,
      "ܚ": 948,
      "ܛ": 949,
      "ܝ": 950,
      "ܠ": 951,
      "ܡ": 952,
      "ܢ": 953,
      "ܣ": 954,
      "ܥ": 955,
      "ܦ": 956,
      "ܪ": 957,
      "ܬ": 958,
      "ܲ": 959,
      "ܵ": 960,
      "ܼ": 961,
      "݂": 962,
      "ँ": 963,
      "ं": 964,
      "ः": 965,
      "अ": 966,
      "आ": 967,
      "इ": 968,
      "ई": 969,
      "उ": 970,
      "ऋ": 971,
      "ए": 972,
      "ऐ": 973,
      "औ": 974,
      "क": 975,
      "ख": 976,
      "ग": 977,
      "घ": 978,
      "ङ": 979,
      "च": 980,
      "छ": 981,
      "ज": 982,
      "ञ": 983,
      "ट": 984,
      "ठ": 985,
      "ड": 986,
      "ण": 987,
      "त": 988,
      "थ": 989,
      "द": 990,
      "ध": 991,
      "न": 992,
      "प": 993,
      "फ": 994,
      "ब": 995,
      "भ": 996,
      "म": 997,
      "य": 998,
      "र": 999,
      "ल": 1000,
      "व": 1001,
      "श": 1002,
      "ष": 1003,
      "स": 1004,
      "ह": 1005,
      "़": 1006,
      "ऽ": 1007,
      "ा": 1008,
      "ि": 1009,
      "ी": 1010,
      "ु": 1011,
      "ू": 1012,
      "ृ": 1013,
      "ॆ": 1014,
      "े": 1015,
      "ै": 1016,
      "ॉ": 1017,
      "ॊ": 1018,
      "ो": 1019,
      "ौ": 1020,
      "्": 1021,
      "ॐ": 1022,
      "।": 1023,
      "॥": 1024,
      "१": 1025,
      "२": 1026,
      "३": 1027,
      "ং": 1028,
      "অ": 1029,
      "আ": 1030,
      "ই": 1031,
      "এ": 1032,
      "ক": 1033,
      "খ": 1034,
      "গ": 1035,
      "ঙ": 1036,
      "চ": 1037,
      "জ": 1038,
      "ট": 1039,
      "ড": 1040,
      "ঢ": 1041,
      "ণ": 1042,
      "ত": 1043,
      "থ": 1044,
      "দ": 1045,
      "ন": 1046,
      "প": 1047,
      "ব": 1048,
      "ভ": 1049,
      "ম": 1050,
      "য": 1051,
      "র": 1052,
      "ল": 1053,
      "শ": 1054,
      "ষ": 1055,
      "স": 1056,
      "হ": 1057,
      "়": 1058,
      "া": 1059,
      "ি": 1060,
      "ী": 1061,
      "ু": 1062,
      "ূ": 1063,
      "ে": 1064,
      "ৈ": 1065,
      "ো": 1066,
      "্": 1067,
      "ৰ": 1068,
      "ਂ": 1069,
      "ਅ": 1070,
      "ਉ": 1071,
      "ਖ": 1072,
      "ਘ": 1073,
      "ਜ": 1074,
      "ਝ": 1075,
      "ਦ": 1076,
      "ਲ": 1077,
      "ਵ": 1078,
      "ਸ": 1079,
      "ਹ": 1080,
      "਼": 1081,
      "ਾ": 1082,
      "ਿ": 1083,
      "ੁ": 1084,
      "ੇ": 1085,
      "ੰ": 1086,
      "ੱ": 1087,
      "ખ": 1088,
      "ફ": 1089,
      "બ": 1090,
      "ર": 1091,
      "લ": 1092,
      "સ": 1093,
      "ા": 1094,
      "ો": 1095,
      "ପ": 1096,
      "ର": 1097,
      "ୀ": 1098,
      "ୁ": 1099,
      "ஃ": 1100,
      "அ": 1101,
      "ஆ": 1102,
      "இ": 1103,
      "ஈ": 1104,
      "எ": 1105,
      "ஒ": 1106,
      "க": 1107,
      "ங": 1108,
      "ச": 1109,
      "ட": 1110,
      "ண": 1111,
      "த": 1112,
      "ந": 1113,
      "ன": 1114,
      "ப": 1115,
      "ம": 1116,
      "ய": 1117,
      "ர": 1118,
      "ற": 1119,
      "ல": 1120,
      "ள": 1121,
      "ழ": 1122,
      "வ": 1123,
      "ஸ": 1124,
      "ா": 1125,
      "ி": 1126,
      "ீ": 1127,
      "ு": 1128,
      "ூ": 1129,
      "ெ": 1130,
      "ே": 1131,
      "ை": 1132,
      "ோ": 1133,
      "்": 1134,
      "ం": 1135,
      "క": 1136,
      "ఖ": 1137,
      "గ": 1138,
      "జ": 1139,
      "ట": 1140,
      "ఠ": 1141,
      "డ": 1142,
      "త": 1143,
      "థ": 1144,
      "ద": 1145,
      "న": 1146,
      "ప": 1147,
      "బ": 1148,
      "భ": 1149,
      "మ": 1150,
      "య": 1151,
      "ర": 1152,
      "ల": 1153,
      "వ": 1154,
      "ష": 1155,
      "స": 1156,
      "ా": 1157,
      "ి": 1158,
      "ీ": 1159,
      "ు": 1160,
      "ై": 1161,
      "ో": 1162,
      "్": 1163,
      "ಂ": 1164,
      "ಃ": 1165,
      "ಕ": 1166,
      "ಖ": 1167,
      "ಗ": 1168,
      "ಚ": 1169,
      "ಟ": 1170,
      "ಠ": 1171,
      "ಡ": 1172,
      "ತ": 1173,
      "ದ": 1174,
      "ನ": 1175,
      "ಪ": 1176,
      "ಬ": 1177,
      "ಭ": 1178,
      "ಮ": 1179,
      "ಯ": 1180,
      "ರ": 1181,
      "ಱ": 1182,
      "ಲ": 1183,
      "ಳ": 1184,
      "ವ": 1185,
      "ಶ": 1186,
      "ಸ": 1187,
      "ಹ": 1188,
      "ಾ": 1189,
      "ಿ": 1190,
      "ು": 1191,
      "ೇ": 1192,
      "ೋ": 1193,
      "್": 1194,
      "ೞ": 1195,
      "അ": 1196,
      "ങ": 1197,
      "ദ": 1198,
      "ന": 1199,
      "പ": 1200,
      "മ": 1201,
      "യ": 1202,
      "ര": 1203,
      "ള": 1204,
      "വ": 1205,
      "ശ": 1206,
      "സ": 1207,
      "ഹ": 1208,
      "ാ": 1209,
      "ി": 1210,
      "്": 1211,
      "අ": 1212,
      "එ": 1213,
      "ක": 1214,
      "ග": 1215,
      "ජ": 1216,
      "ත": 1217,
      "ධ": 1218,
      "න": 1219,
      "ප": 1220,
      "ම": 1221,
      "ය": 1222,
      "ර": 1223,
      "ල": 1224,
      "ව": 1225,
      "ශ": 1226,
      "හ": 1227,
      "ළ": 1228,
      "්": 1229,
      "ා": 1230,
      "ැ": 1231,
      "ි": 1232,
      "ු": 1233,
      "ේ": 1234,
      "ෝ": 1235,
      "ก": 1236,
      "ข": 1237,
      "ค": 1238,
      "ฆ": 1239,
      "ง": 1240,
      "จ": 1241,
      "ฉ": 1242,
      "ช": 1243,
      "ซ": 1244,
      "ญ": 1245,
      "ฎ": 1246,
      "ฏ": 1247,
      "ฐ": 1248,
      "ฑ": 1249,
      "ณ": 1250,
      "ด": 1251,
      "ต": 1252,
      "ถ": 1253,
      "ท": 1254,
      "ธ": 1255,
      "น": 1256,
      "บ": 1257,
      "ป": 1258,
      "ผ": 1259,
      "ฝ": 1260,
      "พ": 1261,
      "ฟ": 1262,
      "ภ": 1263,
      "ม": 1264,
      "ย": 1265,
      "ร": 1266,
      "ฤ": 1267,
      "ล": 1268,
      "ว": 1269,
      "ศ": 1270,
      "ษ": 1271,
      "ส": 1272,
      "ห": 1273,
      "ฬ": 1274,
      "อ": 1275,
      "ฮ": 1276,
      "ะ": 1277,
      "ั": 1278,
      "า": 1279,
      "ำ": 1280,
      "ิ": 1281,
      "ี": 1282,
      "ึ": 1283,
      "ื": 1284,
      "ุ": 1285,
      "ู": 1286,
      "฿": 1287,
      "เ": 1288,
      "แ": 1289,
      "โ": 1290,
      "ใ": 1291,
      "ไ": 1292,
      "็": 1293,
      "่": 1294,
      "้": 1295,
      "๊": 1296,
      "์": 1297,
      "་": 1298,
      "༌": 1299,
      "།": 1300,
      "ཀ": 1301,
      "ཁ": 1302,
      "ག": 1303,
      "ང": 1304,
      "ཆ": 1305,
      "ཇ": 1306,
      "ཐ": 1307,
      "ད": 1308,
      "ན": 1309,
      "པ": 1310,
      "བ": 1311,
      "མ": 1312,
      "ཙ": 1313,
      "ཚ": 1314,
      "ཛ": 1315,
      "འ": 1316,
      "ཡ": 1317,
      "ར": 1318,
      "ལ": 1319,
      "ས": 1320,
      "ཧ": 1321,
      "ི": 1322,
      "ུ": 1323,
      "ེ": 1324,
      "ོ": 1325,
      "ྟ": 1326,
      "ྡ": 1327,
      "ྣ": 1328,
      "ྤ": 1329,
      "ྥ": 1330,
      "ྱ": 1331,
      "ྲ": 1332,
      "က": 1333,
      "ဂ": 1334,
      "င": 1335,
      "စ": 1336,
      "ဆ": 1337,
      "န": 1338,
      "ပ": 1339,
      "ဗ": 1340,
      "ဘ": 1341,
      "မ": 1342,
      "ယ": 1343,
      "ရ": 1344,
      "လ": 1345,
      "ဝ": 1346,
      "ဟ": 1347,
      "ာ": 1348,
      "ိ": 1349,
      "ီ": 1350,
      "ု": 1351,
      "ူ": 1352,
      "ဲ": 1353,
      "း": 1354,
      "္": 1355,
      "်": 1356,
      "ျ": 1357,
      "ြ": 1358,
      "ှ": 1359,
      "Ⴀ": 1360,
      "Ⴂ": 1361,
      "Ⴃ": 1362,
      "Ⴈ": 1363,
      "Ⴌ": 1364,
      "Ⴕ": 1365,
      "Ⴟ": 1366,
      "ა": 1367,
      "ბ": 1368,
      "გ": 1369,
      "დ": 1370,
      "ე": 1371,
      "ვ": 1372,
      "ზ": 1373,
      "თ": 1374,
      "ი": 1375,
      "კ": 1376,
      "ლ": 1377,
      "მ": 1378,
      "ნ": 1379,
      "ო": 1380,
      "პ": 1381,
      "ჟ": 1382,
      "რ": 1383,
      "ს": 1384,
      "ტ": 1385,
      "უ": 1386,
      "ფ": 1387,
      "ქ": 1388,
      "ღ": 1389,
      "ყ": 1390,
      "შ": 1391,
      "ჩ": 1392,
      "ც": 1393,
      "ძ": 1394,
      "წ": 1395,
      "ჭ": 1396,
      "ხ": 1397,
      "ჯ": 1398,
      "ჰ": 1399,
      "ჱ": 1400,
      "ჲ": 1401,
      "ჳ": 1402,
      "ჴ": 1403,
      "ჵ": 1404,
      "ჶ": 1405,
      "ჷ": 1406,
      "ჸ": 1407,
      "ჹ": 1408,
      "ჺ": 1409,
      "჻": 1410,
      "ሀ": 1411,
      "ለ": 1412,
      "ሐ": 1413,
      "ሓ": 1414,
      "ሕ": 1415,
      "መ": 1416,
      "ማ": 1417,
      "ሥ": 1418,
      "ረ": 1419,
      "ር": 1420,
      "ሰ": 1421,
      "ስ": 1422,
      "ቆ": 1423,
      "ቈ": 1424,
      "በ": 1425,
      "ብ": 1426,
      "ቲ": 1427,
      "ታ": 1428,
      "ት": 1429,
      "ነ": 1430,
      "ና": 1431,
      "ን": 1432,
      "ኖ": 1433,
      "አ": 1434,
      "ኢ": 1435,
      "እ": 1436,
      "ከ": 1437,
      "ኲ": 1438,
      "ዕ": 1439,
      "ዘ": 1440,
      "ዛ": 1441,
      "የ": 1442,
      "ያ": 1443,
      "ይ": 1444,
      "ዮ": 1445,
      "ደ": 1446,
      "ድ": 1447,
      "ጅ": 1448,
      "ገ": 1449,
      "ጉ": 1450,
      "ጵ": 1451,
      "ፈ": 1452,
      "ፍ": 1453,
      "፡": 1454,
      "Ꭰ": 1455,
      "Ꭳ": 1456,
      "Ꭶ": 1457,
      "Ꭸ": 1458,
      "Ꭹ": 1459,
      "Ꮀ": 1460,
      "Ꮃ": 1461,
      "Ꮉ": 1462,
      "Ꮝ": 1463,
      "Ꮿ": 1464,
      "Ᏹ": 1465,
      "ᐊ": 1466,
      "ᑲ": 1467,
      "ᒡ": 1468,
      "ᓘ": 1469,
      "ᚢ": 1470,
      "ᚣ": 1471,
      "ᚦ": 1472,
      "ᚨ": 1473,
      "ᚩ": 1474,
      "ᚬ": 1475,
      "ᚱ": 1476,
      "ᚷ": 1477,
      "ᚹ": 1478,
      "ᚺ": 1479,
      "ᚻ": 1480,
      "ᚼ": 1481,
      "ᚾ": 1482,
      "ᛁ": 1483,
      "ᛃ": 1484,
      "ᛄ": 1485,
      "ᛇ": 1486,
      "ᛋ": 1487,
      "ᛏ": 1488,
      "ᛒ": 1489,
      "ᛗ": 1490,
      "ᛚ": 1491,
      "ᛝ": 1492,
      "ᛞ": 1493,
      "ᛟ": 1494,
      "ᛠ": 1495,
      "ក": 1496,
      "ខ": 1497,
      "គ": 1498,
      "ង": 1499,
      "ច": 1500,
      "ឆ": 1501,
      "ជ": 1502,
      "ញ": 1503,
      "ដ": 1504,
      "ឋ": 1505,
      "ណ": 1506,
      "ត": 1507,
      "ថ": 1508,
      "ទ": 1509,
      "ធ": 1510,
      "ន": 1511,
      "ប": 1512,
      "ព": 1513,
      "ភ": 1514,
      "ម": 1515,
      "យ": 1516,
      "រ": 1517,
      "ល": 1518,
      "វ": 1519,
      "ស": 1520,
      "ហ": 1521,
      "អ": 1522,
      "ឥ": 1523,
      "ឪ": 1524,
      "ឫ": 1525,
      "ឯ": 1526,
      "឵": 1527,
      "ា": 1528,
      "ិ": 1529,
      "ី": 1530,
      "ឹ": 1531,
      "ឺ": 1532,
      "ុ": 1533,
      "ូ": 1534,
      "ួ": 1535,
      "ៀ": 1536,
      "េ": 1537,
      "ែ": 1538,
      "ៃ": 1539,
      "ោ": 1540,
      "ៅ": 1541,
      "ំ": 1542,
      "ះ": 1543,
      "ៈ": 1544,
      "៉": 1545,
      "់": 1546,
      "្": 1547,
      "ᠠ": 1548,
      "ᠣ": 1549,
      "ᠨ": 1550,
      "ᠪ": 1551,
      "ᠮ": 1552,
      "ᠯ": 1553,
      "ᠰ": 1554,
      "ᠴ": 1555,
      "ᠵ": 1556,
      "ᠸ": 1557,
      "ᡝ": 1558,
      "ᡠ": 1559,
      "ᡥ": 1560,
      "ᡨ": 1561,
      "ᡳ": 1562,
      "ᡴ": 1563,
      "ᡵ": 1564,
      "ᴰ": 1565,
      "ᴷ": 1566,
      "ᴺ": 1567,
      "ᵀ": 1568,
      "ᵊ": 1569,
      "ᵑ": 1570,
      "ᵗ": 1571,
      "ᵘ": 1572,
      "ᵝ": 1573,
      "ᵻ": 1574,
      "ᵿ": 1575,
      "ᶑ": 1576,
      "ᶢ": 1577,
      "ᶦ": 1578,
      "ᶴ": 1579,
      "ᶷ": 1580,
      "᷄": 1581,
      "᷅": 1582,
      "᷆": 1583,
      "᷇": 1584,
      "᷈": 1585,
      "᷉": 1586,
      "᷽": 1587,
      "Ḍ": 1588,
      "ḍ": 1589,
      "Ḏ": 1590,
      "ḏ": 1591,
      "ḑ": 1592,
      "ḕ": 1593,
      "ḗ": 1594,
      "Ḣ": 1595,
      "Ḥ": 1596,
      "ḥ": 1597,
      "Ḩ": 1598,
      "ḩ": 1599,
      "Ḫ": 1600,
      "ḫ": 1601,
      "ḭ": 1602,
      "ḱ": 1603,
      "Ḳ": 1604,
      "ḳ": 1605,
      "ḵ": 1606,
      "ḷ": 1607,
      "ḹ": 1608,
      "ḻ": 1609,
      "ḿ": 1610,
      "ṁ": 1611,
      "ṃ": 1612,
      "ṅ": 1613,
      "ṇ": 1614,
      "ṉ": 1615,
      "ṓ": 1616,
      "ṙ": 1617,
      "Ṛ": 1618,
      "ṛ": 1619,
      "Ṝ": 1620,
      "ṝ": 1621,
      "ṟ": 1622,
      "Ṣ": 1623,
      "ṣ": 1624,
      "Ṧ": 1625,
      "Ṫ": 1626,
      "Ṭ": 1627,
      "ṭ": 1628,
      "Ṯ": 1629,
      "ṯ": 1630,
      "ṳ": 1631,
      "ṵ": 1632,
      "Ṽ": 1633,
      "ṽ": 1634,
      "ẃ": 1635,
      "Ẓ": 1636,
      "ẓ": 1637,
      "ẖ": 1638,
      "ạ": 1639,
      "ả": 1640,
      "Ấ": 1641,
      "ấ": 1642,
      "ầ": 1643,
      "Ẩ": 1644,
      "ẩ": 1645,
      "ẫ": 1646,
      "ậ": 1647,
      "ắ": 1648,
      "ằ": 1649,
      "ẵ": 1650,
      "ặ": 1651,
      "ẹ": 1652,
      "ẻ": 1653,
      "ẽ": 1654,
      "ế": 1655,
      "ề": 1656,
      "ể": 1657,
      "ễ": 1658,
      "ệ": 1659,
      "ỉ": 1660,
      "ị": 1661,
      "Ọ": 1662,
      "ọ": 1663,
      "ỏ": 1664,
      "Ố": 1665,
      "ố": 1666,
      "ồ": 1667,
      "ổ": 1668,
      "ỗ": 1669,
      "ộ": 1670,
      "ớ": 1671,
      "ờ": 1672,
      "ở": 1673,
      "ợ": 1674,
      "Ụ": 1675,
      "ụ": 1676,
      "ủ": 1677,
      "Ứ": 1678,
      "ứ": 1679,
      "ừ": 1680,
      "ử": 1681,
      "ữ": 1682,
      "ự": 1683,
      "ỳ": 1684,
      "ỵ": 1685,
      "ỹ": 1686,
      "ἀ": 1687,
      "ἁ": 1688,
      "ἂ": 1689,
      "ἃ": 1690,
      "ἄ": 1691,
      "ἅ": 1692,
      "Ἀ": 1693,
      "Ἁ": 1694,
      "Ἄ": 1695,
      "Ἅ": 1696,
      "ἐ": 1697,
      "ἑ": 1698,
      "ἒ": 1699,
      "ἔ": 1700,
      "ἕ": 1701,
      "Ἐ": 1702,
      "Ἑ": 1703,
      "Ἔ": 1704,
      "Ἕ": 1705,
      "ἠ": 1706,
      "ἡ": 1707,
      "ἢ": 1708,
      "ἤ": 1709,
      "ἥ": 1710,
      "ἦ": 1711,
      "ἧ": 1712,
      "Ἠ": 1713,
      "Ἡ": 1714,
      "ἰ": 1715,
      "ἱ": 1716,
      "ἲ": 1717,
      "ἳ": 1718,
      "ἴ": 1719,
      "ἵ": 1720,
      "ἶ": 1721,
      "ἷ": 1722,
      "Ἰ": 1723,
      "Ἱ": 1724,
      "Ἶ": 1725,
      "ὀ": 1726,
      "ὁ": 1727,
      "ὂ": 1728,
      "ὃ": 1729,
      "ὄ": 1730,
      "ὅ": 1731,
      "Ὁ": 1732,
      "Ὄ": 1733,
      "ὐ": 1734,
      "ὑ": 1735,
      "ὔ": 1736,
      "ὕ": 1737,
      "ὖ": 1738,
      "ὗ": 1739,
      "Ὕ": 1740,
      "ὡ": 1741,
      "ὣ": 1742,
      "ὤ": 1743,
      "ὥ": 1744,
      "ὦ": 1745,
      "Ὠ": 1746,
      "Ὡ": 1747,
      "Ὦ": 1748,
      "ὰ": 1749,
      "ὲ": 1750,
      "ὴ": 1751,
      "ὶ": 1752,
      "ὸ": 1753,
      "ὺ": 1754,
      "ὼ": 1755,
      "ᾓ": 1756,
      "ᾰ": 1757,
      "ᾳ": 1758,
      "ᾶ": 1759,
      "ᾷ": 1760,
      "᾿": 1761,
      "ῆ": 1762,
      "ῇ": 1763,
      "Ὲ": 1764,
      "ῐ": 1765,
      "ῑ": 1766,
      "ῖ": 1767,
      "Ὶ": 1768,
      "ῠ": 1769,
      "ῥ": 1770,
      "ῦ": 1771,
      "Ῥ": 1772,
      "ῳ": 1773,
      "ῶ": 1774,
      "ῷ": 1775,
      "​": 1776,
      "‌": 1777,
      "‍": 1778,
      "‐": 1779,
      "‑": 1780,
      "‒": 1781,
      "–": 1782,
      "—": 1783,
      "―": 1784,
      "‖": 1785,
      "‘": 1786,
      "’": 1787,
      "‚": 1788,
      "‛": 1789,
      "“": 1790,
      "”": 1791,
      "„": 1792,
      "‟": 1793,
      "†": 1794,
      "‡": 1795,
      "•": 1796,
      "…": 1797,
      "‰": 1798,
      "′": 1799,
      "″": 1800,
      "※": 1801,
      "‼": 1802,
      "‿": 1803,
      "⁄": 1804,
      "⁊": 1805,
      "⁠": 1806,
      "⁡": 1807,
      "⁰": 1808,
      "⁺": 1809,
      "ⁿ": 1810,
      "₁": 1811,
      "₂": 1812,
      "₃": 1813,
      "₄": 1814,
      "₡": 1815,
      "₣": 1816,
      "₤": 1817,
      "₦": 1818,
      "₧": 1819,
      "₨": 1820,
      "₩": 1821,
      "₫": 1822,
      "€": 1823,
      "₱": 1824,
      "₴": 1825,
      "₹": 1826,
      "ℂ": 1827,
      "℃": 1828,
      "ℓ": 1829,
      "ℕ": 1830,
      "№": 1831,
      "ℛ": 1832,
      "ℝ": 1833,
      "℞": 1834,
      "™": 1835,
      "ℤ": 1836,
      "℥": 1837,
      "ℵ": 1838,
      "⅓": 1839,
      "⅔": 1840,
      "⅙": 1841,
      "⅛": 1842,
      "⅜": 1843,
      "⅝": 1844,
      "⅞": 1845,
      "Ⅱ": 1846,
      "←": 1847,
      "↑": 1848,
      "→": 1849,
      "↓": 1850,
      "↔": 1851,
      "↗": 1852,
      "↘": 1853,
      "↦": 1854,
      "↪": 1855,
      "↵": 1856,
      "⇄": 1857,
      "⇌": 1858,
      "⇒": 1859,
      "⇪": 1860,
      "∀": 1861,
      "∂": 1862,
      "∅": 1863,
      "∆": 1864,
      "∇": 1865,
      "∈": 1866,
      "∉": 1867,
      "∊": 1868,
      "∑": 1869,
      "−": 1870,
      "∕": 1871,
      "∖": 1872,
      "∗": 1873,
      "∘": 1874,
      "√": 1875,
      "∝": 1876,
      "∞": 1877,
      "∤": 1878,
      "∩": 1879,
      "∪": 1880,
      "∫": 1881,
      "∴": 1882,
      "∼": 1883,
      "≈": 1884,
      "≠": 1885,
      "≡": 1886,
      "≢": 1887,
      "≤": 1888,
      "≥": 1889,
      "≪": 1890,
      "≫": 1891,
      "≲": 1892,
      "⊂": 1893,
      "⊕": 1894,
      "⊗": 1895,
      "⊙": 1896,
      "⊞": 1897,
      "⊢": 1898,
      "⊣": 1899,
      "⊥": 1900,
      "⋅": 1901,
      "⋆": 1902,
      "⋯": 1903,
      "⌊": 1904,
      "⌋": 1905,
      "⌘": 1906,
      "①": 1907,
      "②": 1908,
      "③": 1909,
      "④": 1910,
      "⑤": 1911,
      "⑥": 1912,
      "⑦": 1913,
      "⑧": 1914,
      "─": 1915,
      "█": 1916,
      "▢": 1917,
      "▲": 1918,
      "▼": 1919,
      "○": 1920,
      "●": 1921,
      "◦": 1922,
      "☄": 1923,
      "★": 1924,
      "☆": 1925,
      "☉": 1926,
      "☧": 1927,
      "☫": 1928,
      "☭": 1929,
      "☽": 1930,
      "☾": 1931,
      "♀": 1932,
      "♂": 1933,
      "♄": 1934,
      "♅": 1935,
      "♆": 1936,
      "♇": 1937,
      "♈": 1938,
      "♉": 1939,
      "♠": 1940,
      "♣": 1941,
      "♥": 1942,
      "♦": 1943,
      "♩": 1944,
      "♪": 1945,
      "♭": 1946,
      "♮": 1947,
      "♯": 1948,
      "⚳": 1949,
      "⚴": 1950,
      "⚵": 1951,
      "⛢": 1952,
      "✡": 1953,
      "✱": 1954,
      "❄": 1955,
      "❅": 1956,
      "❆": 1957,
      "❤": 1958,
      "⟦": 1959,
      "⟧": 1960,
      "⟨": 1961,
      "⟩": 1962,
      "⥇": 1963,
      "⩽": 1964,
      "⫶": 1965,
      "ⱱ": 1966,
      "ⲁ": 1967,
      "ⲛ": 1968,
      "ⲥ": 1969,
      "ⲧ": 1970,
      "ⲩ": 1971,
      "Ⲫ": 1972,
      "ⲱ": 1973,
      "ⴰ": 1974,
      "ⴳ": 1975,
      "ⴷ": 1976,
      "ⴻ": 1977,
      "ⴼ": 1978,
      "ⴽ": 1979,
      "ⵃ": 1980,
      "ⵇ": 1981,
      "ⵉ": 1982,
      "ⵍ": 1983,
      "ⵎ": 1984,
      "ⵏ": 1985,
      "ⵓ": 1986,
      "ⵔ": 1987,
      "ⵕ": 1988,
      "ⵖ": 1989,
      "ⵙ": 1990,
      "ⵛ": 1991,
      "ⵜ": 1992,
      "ⵡ": 1993,
      "ⵢ": 1994,
      "ⵣ": 1995,
      "⸨": 1996,
      "⸩": 1997,
      "、": 1998,
      "。": 1999,
      "々": 2000,
      "〈": 2001,
      "〉": 2002,
      "《": 2003,
      "》": 2004,
      "「": 2005,
      "」": 2006,
      "『": 2007,
      "』": 2008,
      "【": 2009,
      "】": 2010,
      "〒": 2011,
      "〜": 2012,
      "あ": 2013,
      "ぃ": 2014,
      "い": 2015,
      "ぅ": 2016,
      "う": 2017,
      "ぇ": 2018,
      "え": 2019,
      "ぉ": 2020,
      "お": 2021,
      "か": 2022,
      "が": 2023,
      "き": 2024,
      "ぎ": 2025,
      "く": 2026,
      "ぐ": 2027,
      "け": 2028,
      "げ": 2029,
      "こ": 2030,
      "ご": 2031,
      "さ": 2032,
      "ざ": 2033,
      "し": 2034,
      "じ": 2035,
      "す": 2036,
      "ず": 2037,
      "せ": 2038,
      "ぜ": 2039,
      "そ": 2040,
      "ぞ": 2041,
      "た": 2042,
      "だ": 2043,
      "ち": 2044,
      "っ": 2045,
      "つ": 2046,
      "づ": 2047,
      "て": 2048,
      "で": 2049,
      "と": 2050,
      "ど": 2051,
      "な": 2052,
      "に": 2053,
      "ぬ": 2054,
      "ね": 2055,
      "の": 2056,
      "は": 2057,
      "ば": 2058,
      "ぱ": 2059,
      "ひ": 2060,
      "び": 2061,
      "ぴ": 2062,
      "ふ": 2063,
      "ぶ": 2064,
      "ぷ": 2065,
      "へ": 2066,
      "べ": 2067,
      "ぺ": 2068,
      "ほ": 2069,
      "ぼ": 2070,
      "ぽ": 2071,
      "ま": 2072,
      "み": 2073,
      "む": 2074,
      "め": 2075,
      "も": 2076,
      "ゃ": 2077,
      "や": 2078,
      "ゅ": 2079,
      "ゆ": 2080,
      "ょ": 2081,
      "よ": 2082,
      "ら": 2083,
      "り": 2084,
      "る": 2085,
      "れ": 2086,
      "ろ": 2087,
      "わ": 2088,
      "ゑ": 2089,
      "を": 2090,
      "ん": 2091,
      "ァ": 2092,
      "ア": 2093,
      "ィ": 2094,
      "イ": 2095,
      "ゥ": 2096,
      "ウ": 2097,
      "ェ": 2098,
      "エ": 2099,
      "ォ": 2100,
      "オ": 2101,
      "カ": 2102,
      "ガ": 2103,
      "キ": 2104,
      "ギ": 2105,
      "ク": 2106,
      "グ": 2107,
      "ケ": 2108,
      "ゲ": 2109,
      "コ": 2110,
      "ゴ": 2111,
      "サ": 2112,
      "ザ": 2113,
      "シ": 2114,
      "ジ": 2115,
      "ス": 2116,
      "ズ": 2117,
      "セ": 2118,
      "ゼ": 2119,
      "ソ": 2120,
      "ゾ": 2121,
      "タ": 2122,
      "ダ": 2123,
      "チ": 2124,
      "ヂ": 2125,
      "ッ": 2126,
      "ツ": 2127,
      "ヅ": 2128,
      "テ": 2129,
      "デ": 2130,
      "ト": 2131,
      "ド": 2132,
      "ナ": 2133,
      "ニ": 2134,
      "ヌ": 2135,
      "ネ": 2136,
      "ノ": 2137,
      "ハ": 2138,
      "バ": 2139,
      "パ": 2140,
      "ヒ": 2141,
      "ビ": 2142,
      "ピ": 2143,
      "フ": 2144,
      "ブ": 2145,
      "プ": 2146,
      "ヘ": 2147,
      "ベ": 2148,
      "ペ": 2149,
      "ホ": 2150,
      "ボ": 2151,
      "ポ": 2152,
      "マ": 2153,
      "ミ": 2154,
      "ム": 2155,
      "メ": 2156,
      "モ": 2157,
      "ャ": 2158,
      "ヤ": 2159,
      "ュ": 2160,
      "ユ": 2161,
      "ョ": 2162,
      "ヨ": 2163,
      "ラ": 2164,
      "リ": 2165,
      "ル": 2166,
      "レ": 2167,
      "ロ": 2168,
      "ワ": 2169,
      "ヲ": 2170,
      "ン": 2171,
      "ヴ": 2172,
      "ヶ": 2173,
      "・": 2174,
      "ー": 2175,
      "一": 2176,
      "丁": 2177,
      "七": 2178,
      "万": 2179,
      "丈": 2180,
      "三": 2181,
      "上": 2182,
      "下": 2183,
      "不": 2184,
      "与": 2185,
      "丑": 2186,
      "且": 2187,
      "世": 2188,
      "丘": 2189,
      "丙": 2190,
      "东": 2191,
      "丝": 2192,
      "丞": 2193,
      "両": 2194,
      "丨": 2195,
      "个": 2196,
      "中": 2197,
      "丶": 2198,
      "丸": 2199,
      "丹": 2200,
      "为": 2201,
      "主": 2202,
      "丽": 2203,
      "丿": 2204,
      "乃": 2205,
      "久": 2206,
      "么": 2207,
      "义": 2208,
      "之": 2209,
      "乌": 2210,
      "乎": 2211,
      "乐": 2212,
      "乘": 2213,
      "乙": 2214,
      "乚": 2215,
      "乛": 2216,
      "九": 2217,
      "也": 2218,
      "习": 2219,
      "书": 2220,
      "乩": 2221,
      "买": 2222,
      "乱": 2223,
      "乳": 2224,
      "乾": 2225,
      "亀": 2226,
      "亅": 2227,
      "了": 2228,
      "予": 2229,
      "争": 2230,
      "事": 2231,
      "二": 2232,
      "云": 2233,
      "五": 2234,
      "井": 2235,
      "亚": 2236,
      "些": 2237,
      "亜": 2238,
      "亞": 2239,
      "亡": 2240,
      "交": 2241,
      "亦": 2242,
      "亨": 2243,
      "京": 2244,
      "亮": 2245,
      "亰": 2246,
      "人": 2247,
      "什": 2248,
      "仁": 2249,
      "仇": 2250,
      "今": 2251,
      "介": 2252,
      "仔": 2253,
      "仕": 2254,
      "他": 2255,
      "付": 2256,
      "仙": 2257,
      "代": 2258,
      "令": 2259,
      "以": 2260,
      "仪": 2261,
      "们": 2262,
      "仮": 2263,
      "仰": 2264,
      "仲": 2265,
      "件": 2266,
      "任": 2267,
      "份": 2268,
      "伊": 2269,
      "伏": 2270,
      "伐": 2271,
      "休": 2272,
      "会": 2273,
      "伝": 2274,
      "伟": 2275,
      "传": 2276,
      "伪": 2277,
      "伯": 2278,
      "伴": 2279,
      "伸": 2280,
      "似": 2281,
      "佃": 2282,
      "但": 2283,
      "位": 2284,
      "住": 2285,
      "佐": 2286,
      "佑": 2287,
      "体": 2288,
      "何": 2289,
      "余": 2290,
      "佛": 2291,
      "作": 2292,
      "你": 2293,
      "佳": 2294,
      "併": 2295,
      "使": 2296,
      "來": 2297,
      "例": 2298,
      "侍": 2299,
      "侗": 2300,
      "供": 2301,
      "依": 2302,
      "侠": 2303,
      "侨": 2304,
      "侬": 2305,
      "侯": 2306,
      "係": 2307,
      "促": 2308,
      "俄": 2309,
      "俊": 2310,
      "保": 2311,
      "信": 2312,
      "俭": 2313,
      "修": 2314,
      "俱": 2315,
      "俳": 2316,
      "倉": 2317,
      "個": 2318,
      "們": 2319,
      "候": 2320,
      "借": 2321,
      "倪": 2322,
      "倫": 2323,
      "倭": 2324,
      "偃": 2325,
      "假": 2326,
      "偏": 2327,
      "健": 2328,
      "側": 2329,
      "偵": 2330,
      "偽": 2331,
      "傀": 2332,
      "傅": 2333,
      "傑": 2334,
      "傘": 2335,
      "備": 2336,
      "催": 2337,
      "傭": 2338,
      "傳": 2339,
      "傷": 2340,
      "像": 2341,
      "僑": 2342,
      "僕": 2343,
      "僧": 2344,
      "儀": 2345,
      "億": 2346,
      "儒": 2347,
      "儚": 2348,
      "儡": 2349,
      "優": 2350,
      "儿": 2351,
      "允": 2352,
      "元": 2353,
      "充": 2354,
      "兆": 2355,
      "先": 2356,
      "光": 2357,
      "克": 2358,
      "免": 2359,
      "兒": 2360,
      "兔": 2361,
      "兜": 2362,
      "入": 2363,
      "內": 2364,
      "全": 2365,
      "兩": 2366,
      "八": 2367,
      "公": 2368,
      "六": 2369,
      "兰": 2370,
      "共": 2371,
      "关": 2372,
      "兵": 2373,
      "其": 2374,
      "具": 2375,
      "典": 2376,
      "养": 2377,
      "冀": 2378,
      "内": 2379,
      "円": 2380,
      "冉": 2381,
      "册": 2382,
      "再": 2383,
      "冒": 2384,
      "写": 2385,
      "军": 2386,
      "冠": 2387,
      "冥": 2388,
      "冫": 2389,
      "冬": 2390,
      "冯": 2391,
      "决": 2392,
      "冴": 2393,
      "冶": 2394,
      "冷": 2395,
      "净": 2396,
      "准": 2397,
      "凌": 2398,
      "凤": 2399,
      "処": 2400,
      "凪": 2401,
      "凯": 2402,
      "凰": 2403,
      "凱": 2404,
      "凶": 2405,
      "凹": 2406,
      "出": 2407,
      "刀": 2408,
      "刃": 2409,
      "分": 2410,
      "切": 2411,
      "刊": 2412,
      "划": 2413,
      "列": 2414,
      "刘": 2415,
      "初": 2416,
      "判": 2417,
      "別": 2418,
      "利": 2419,
      "别": 2420,
      "到": 2421,
      "制": 2422,
      "刷": 2423,
      "券": 2424,
      "刹": 2425,
      "刺": 2426,
      "刻": 2427,
      "則": 2428,
      "前": 2429,
      "剑": 2430,
      "剛": 2431,
      "剣": 2432,
      "剧": 2433,
      "剩": 2434,
      "副": 2435,
      "割": 2436,
      "創": 2437,
      "劃": 2438,
      "劇": 2439,
      "劉": 2440,
      "劍": 2441,
      "力": 2442,
      "办": 2443,
      "功": 2444,
      "加": 2445,
      "劣": 2446,
      "动": 2447,
      "助": 2448,
      "劳": 2449,
      "勃": 2450,
      "勅": 2451,
      "勇": 2452,
      "勒": 2453,
      "動": 2454,
      "勘": 2455,
      "務": 2456,
      "勝": 2457,
      "勞": 2458,
      "勢": 2459,
      "勳": 2460,
      "勾": 2461,
      "包": 2462,
      "化": 2463,
      "北": 2464,
      "匠": 2465,
      "匹": 2466,
      "区": 2467,
      "医": 2468,
      "區": 2469,
      "十": 2470,
      "千": 2471,
      "升": 2472,
      "午": 2473,
      "半": 2474,
      "华": 2475,
      "协": 2476,
      "卐": 2477,
      "卒": 2478,
      "卓": 2479,
      "協": 2480,
      "单": 2481,
      "卖": 2482,
      "南": 2483,
      "博": 2484,
      "卜": 2485,
      "占": 2486,
      "卡": 2487,
      "卢": 2488,
      "卦": 2489,
      "卫": 2490,
      "印": 2491,
      "危": 2492,
      "即": 2493,
      "却": 2494,
      "卸": 2495,
      "卿": 2496,
      "厂": 2497,
      "厄": 2498,
      "历": 2499,
      "厘": 2500,
      "厚": 2501,
      "原": 2502,
      "厥": 2503,
      "厦": 2504,
      "厩": 2505,
      "去": 2506,
      "县": 2507,
      "参": 2508,
      "參": 2509,
      "叉": 2510,
      "及": 2511,
      "友": 2512,
      "双": 2513,
      "反": 2514,
      "収": 2515,
      "发": 2516,
      "叔": 2517,
      "取": 2518,
      "受": 2519,
      "变": 2520,
      "叛": 2521,
      "叠": 2522,
      "叡": 2523,
      "叢": 2524,
      "口": 2525,
      "古": 2526,
      "句": 2527,
      "只": 2528,
      "叫": 2529,
      "召": 2530,
      "可": 2531,
      "台": 2532,
      "史": 2533,
      "右": 2534,
      "叶": 2535,
      "号": 2536,
      "司": 2537,
      "合": 2538,
      "吉": 2539,
      "同": 2540,
      "名": 2541,
      "后": 2542,
      "向": 2543,
      "吕": 2544,
      "君": 2545,
      "吞": 2546,
      "吟": 2547,
      "吧": 2548,
      "启": 2549,
      "吳": 2550,
      "吴": 2551,
      "吸": 2552,
      "吹": 2553,
      "吾": 2554,
      "呂": 2555,
      "呉": 2556,
      "告": 2557,
      "周": 2558,
      "呪": 2559,
      "味": 2560,
      "呼": 2561,
      "命": 2562,
      "咆": 2563,
      "和": 2564,
      "咖": 2565,
      "咙": 2566,
      "咫": 2567,
      "咲": 2568,
      "咸": 2569,
      "哀": 2570,
      "品": 2571,
      "哈": 2572,
      "哉": 2573,
      "响": 2574,
      "員": 2575,
      "哥": 2576,
      "哮": 2577,
      "哲": 2578,
      "唄": 2579,
      "唐": 2580,
      "唯": 2581,
      "唱": 2582,
      "商": 2583,
      "問": 2584,
      "啓": 2585,
      "啟": 2586,
      "啡": 2587,
      "善": 2588,
      "喇": 2589,
      "喋": 2590,
      "喚": 2591,
      "喜": 2592,
      "喝": 2593,
      "喬": 2594,
      "嘉": 2595,
      "嘘": 2596,
      "噛": 2597,
      "器": 2598,
      "嚣": 2599,
      "嚴": 2600,
      "囁": 2601,
      "囂": 2602,
      "囃": 2603,
      "囚": 2604,
      "四": 2605,
      "回": 2606,
      "因": 2607,
      "团": 2608,
      "団": 2609,
      "図": 2610,
      "国": 2611,
      "图": 2612,
      "圈": 2613,
      "國": 2614,
      "圍": 2615,
      "圏": 2616,
      "園": 2617,
      "圓": 2618,
      "圖": 2619,
      "土": 2620,
      "圣": 2621,
      "圧": 2622,
      "在": 2623,
      "地": 2624,
      "圻": 2625,
      "坂": 2626,
      "均": 2627,
      "坊": 2628,
      "坑": 2629,
      "块": 2630,
      "坚": 2631,
      "坝": 2632,
      "坡": 2633,
      "坤": 2634,
      "坪": 2635,
      "型": 2636,
      "垣": 2637,
      "城": 2638,
      "埔": 2639,
      "域": 2640,
      "執": 2641,
      "培": 2642,
      "基": 2643,
      "堀": 2644,
      "堂": 2645,
      "堅": 2646,
      "堆": 2647,
      "堡": 2648,
      "堤": 2649,
      "堯": 2650,
      "報": 2651,
      "場": 2652,
      "塊": 2653,
      "塔": 2654,
      "塘": 2655,
      "塚": 2656,
      "塞": 2657,
      "塩": 2658,
      "填": 2659,
      "塵": 2660,
      "境": 2661,
      "墓": 2662,
      "墙": 2663,
      "增": 2664,
      "壁": 2665,
      "壌": 2666,
      "壓": 2667,
      "壟": 2668,
      "壤": 2669,
      "士": 2670,
      "壬": 2671,
      "壮": 2672,
      "壯": 2673,
      "声": 2674,
      "壱": 2675,
      "売": 2676,
      "壳": 2677,
      "壷": 2678,
      "壽": 2679,
      "处": 2680,
      "备": 2681,
      "変": 2682,
      "复": 2683,
      "夏": 2684,
      "夕": 2685,
      "外": 2686,
      "多": 2687,
      "夜": 2688,
      "够": 2689,
      "夢": 2690,
      "夤": 2691,
      "大": 2692,
      "天": 2693,
      "太": 2694,
      "夫": 2695,
      "央": 2696,
      "失": 2697,
      "头": 2698,
      "夷": 2699,
      "奇": 2700,
      "奈": 2701,
      "奉": 2702,
      "奎": 2703,
      "奏": 2704,
      "奐": 2705,
      "契": 2706,
      "奔": 2707,
      "奥": 2708,
      "奧": 2709,
      "奪": 2710,
      "女": 2711,
      "奴": 2712,
      "好": 2713,
      "如": 2714,
      "妃": 2715,
      "妇": 2716,
      "妍": 2717,
      "妖": 2718,
      "妙": 2719,
      "妮": 2720,
      "妹": 2721,
      "妻": 2722,
      "姉": 2723,
      "姊": 2724,
      "始": 2725,
      "姑": 2726,
      "委": 2727,
      "姚": 2728,
      "姥": 2729,
      "姦": 2730,
      "姫": 2731,
      "姬": 2732,
      "姿": 2733,
      "威": 2734,
      "娘": 2735,
      "娜": 2736,
      "婁": 2737,
      "婆": 2738,
      "婚": 2739,
      "婷": 2740,
      "嫁": 2741,
      "嬢": 2742,
      "嬴": 2743,
      "子": 2744,
      "孔": 2745,
      "字": 2746,
      "存": 2747,
      "孙": 2748,
      "孛": 2749,
      "孝": 2750,
      "孟": 2751,
      "季": 2752,
      "孤": 2753,
      "学": 2754,
      "孩": 2755,
      "孫": 2756,
      "孵": 2757,
      "學": 2758,
      "宁": 2759,
      "宅": 2760,
      "宇": 2761,
      "守": 2762,
      "安": 2763,
      "宋": 2764,
      "完": 2765,
      "宏": 2766,
      "宗": 2767,
      "官": 2768,
      "宙": 2769,
      "定": 2770,
      "宜": 2771,
      "宝": 2772,
      "实": 2773,
      "実": 2774,
      "客": 2775,
      "宣": 2776,
      "室": 2777,
      "宫": 2778,
      "宮": 2779,
      "宴": 2780,
      "宵": 2781,
      "家": 2782,
      "宸": 2783,
      "容": 2784,
      "宿": 2785,
      "寂": 2786,
      "寄": 2787,
      "密": 2788,
      "寇": 2789,
      "富": 2790,
      "寔": 2791,
      "寗": 2792,
      "寛": 2793,
      "寝": 2794,
      "寞": 2795,
      "察": 2796,
      "寧": 2797,
      "寨": 2798,
      "審": 2799,
      "寬": 2800,
      "寵": 2801,
      "寶": 2802,
      "寸": 2803,
      "对": 2804,
      "寺": 2805,
      "寻": 2806,
      "対": 2807,
      "寿": 2808,
      "封": 2809,
      "射": 2810,
      "将": 2811,
      "將": 2812,
      "尉": 2813,
      "尊": 2814,
      "尋": 2815,
      "對": 2816,
      "導": 2817,
      "小": 2818,
      "少": 2819,
      "尔": 2820,
      "尚": 2821,
      "尧": 2822,
      "就": 2823,
      "尸": 2824,
      "尹": 2825,
      "尺": 2826,
      "尼": 2827,
      "尽": 2828,
      "尾": 2829,
      "局": 2830,
      "居": 2831,
      "届": 2832,
      "屋": 2833,
      "屍": 2834,
      "屑": 2835,
      "展": 2836,
      "屠": 2837,
      "層": 2838,
      "屬": 2839,
      "屯": 2840,
      "山": 2841,
      "屿": 2842,
      "岐": 2843,
      "岑": 2844,
      "岚": 2845,
      "岛": 2846,
      "岡": 2847,
      "岩": 2848,
      "岬": 2849,
      "岭": 2850,
      "岳": 2851,
      "岸": 2852,
      "峰": 2853,
      "島": 2854,
      "崇": 2855,
      "崎": 2856,
      "崔": 2857,
      "崖": 2858,
      "嵐": 2859,
      "嶋": 2860,
      "嶺": 2861,
      "嶼": 2862,
      "巂": 2863,
      "巖": 2864,
      "川": 2865,
      "州": 2866,
      "巡": 2867,
      "工": 2868,
      "左": 2869,
      "巨": 2870,
      "巫": 2871,
      "差": 2872,
      "己": 2873,
      "巳": 2874,
      "巴": 2875,
      "巻": 2876,
      "币": 2877,
      "市": 2878,
      "布": 2879,
      "帆": 2880,
      "师": 2881,
      "希": 2882,
      "帕": 2883,
      "帖": 2884,
      "帝": 2885,
      "帥": 2886,
      "带": 2887,
      "師": 2888,
      "帮": 2889,
      "帰": 2890,
      "帶": 2891,
      "常": 2892,
      "幕": 2893,
      "幡": 2894,
      "幣": 2895,
      "干": 2896,
      "平": 2897,
      "年": 2898,
      "幸": 2899,
      "幻": 2900,
      "幽": 2901,
      "广": 2902,
      "庁": 2903,
      "広": 2904,
      "庄": 2905,
      "庆": 2906,
      "庇": 2907,
      "序": 2908,
      "库": 2909,
      "底": 2910,
      "庖": 2911,
      "店": 2912,
      "庙": 2913,
      "庚": 2914,
      "府": 2915,
      "度": 2916,
      "座": 2917,
      "庫": 2918,
      "庭": 2919,
      "庵": 2920,
      "康": 2921,
      "廉": 2922,
      "廊": 2923,
      "廖": 2924,
      "廟": 2925,
      "廣": 2926,
      "廬": 2927,
      "延": 2928,
      "廷": 2929,
      "建": 2930,
      "廻": 2931,
      "廿": 2932,
      "开": 2933,
      "弁": 2934,
      "式": 2935,
      "弐": 2936,
      "弓": 2937,
      "弔": 2938,
      "引": 2939,
      "弘": 2940,
      "弟": 2941,
      "张": 2942,
      "弥": 2943,
      "弦": 2944,
      "弧": 2945,
      "弱": 2946,
      "張": 2947,
      "強": 2948,
      "弹": 2949,
      "强": 2950,
      "弾": 2951,
      "彌": 2952,
      "当": 2953,
      "录": 2954,
      "彖": 2955,
      "彙": 2956,
      "形": 2957,
      "彦": 2958,
      "彩": 2959,
      "彪": 2960,
      "彬": 2961,
      "彭": 2962,
      "影": 2963,
      "役": 2964,
      "彼": 2965,
      "征": 2966,
      "径": 2967,
      "待": 2968,
      "律": 2969,
      "後": 2970,
      "徐": 2971,
      "徒": 2972,
      "得": 2973,
      "從": 2974,
      "御": 2975,
      "復": 2976,
      "微": 2977,
      "徳": 2978,
      "德": 2979,
      "徹": 2980,
      "徽": 2981,
      "心": 2982,
      "必": 2983,
      "忍": 2984,
      "志": 2985,
      "忘": 2986,
      "応": 2987,
      "忠": 2988,
      "快": 2989,
      "念": 2990,
      "怀": 2991,
      "怎": 2992,
      "怒": 2993,
      "怖": 2994,
      "思": 2995,
      "怡": 2996,
      "急": 2997,
      "性": 2998,
      "怨": 2999,
      "怪": 3000,
      "总": 3001,
      "恆": 3002,
      "恋": 3003,
      "恐": 3004,
      "恒": 3005,
      "恢": 3006,
      "恥": 3007,
      "恩": 3008,
      "恭": 3009,
      "息": 3010,
      "恵": 3011,
      "恼": 3012,
      "悔": 3013,
      "悟": 3014,
      "悠": 3015,
      "悦": 3016,
      "悪": 3017,
      "悫": 3018,
      "悲": 3019,
      "悼": 3020,
      "情": 3021,
      "惑": 3022,
      "惟": 3023,
      "惠": 3024,
      "惡": 3025,
      "想": 3026,
      "愁": 3027,
      "愍": 3028,
      "意": 3029,
      "愚": 3030,
      "愛": 3031,
      "感": 3032,
      "愽": 3033,
      "慈": 3034,
      "態": 3035,
      "慎": 3036,
      "慧": 3037,
      "慰": 3038,
      "慶": 3039,
      "憂": 3040,
      "憎": 3041,
      "憑": 3042,
      "憲": 3043,
      "憶": 3044,
      "應": 3045,
      "懍": 3046,
      "懷": 3047,
      "戈": 3048,
      "戊": 3049,
      "戎": 3050,
      "成": 3051,
      "我": 3052,
      "战": 3053,
      "戦": 3054,
      "戯": 3055,
      "戰": 3056,
      "戴": 3057,
      "户": 3058,
      "戸": 3059,
      "房": 3060,
      "所": 3061,
      "扁": 3062,
      "扇": 3063,
      "扈": 3064,
      "扉": 3065,
      "手": 3066,
      "才": 3067,
      "打": 3068,
      "托": 3069,
      "扶": 3070,
      "找": 3071,
      "承": 3072,
      "技": 3073,
      "抄": 3074,
      "抓": 3075,
      "投": 3076,
      "抜": 3077,
      "択": 3078,
      "护": 3079,
      "报": 3080,
      "披": 3081,
      "抱": 3082,
      "抵": 3083,
      "担": 3084,
      "拉": 3085,
      "拍": 3086,
      "拏": 3087,
      "拐": 3088,
      "拖": 3089,
      "拘": 3090,
      "招": 3091,
      "拜": 3092,
      "拟": 3093,
      "拥": 3094,
      "括": 3095,
      "拳": 3096,
      "拾": 3097,
      "持": 3098,
      "挂": 3099,
      "指": 3100,
      "挑": 3101,
      "挥": 3102,
      "振": 3103,
      "据": 3104,
      "捷": 3105,
      "授": 3106,
      "掛": 3107,
      "採": 3108,
      "探": 3109,
      "控": 3110,
      "掲": 3111,
      "描": 3112,
      "提": 3113,
      "揚": 3114,
      "換": 3115,
      "援": 3116,
      "揺": 3117,
      "摂": 3118,
      "摩": 3119,
      "摸": 3120,
      "撃": 3121,
      "撒": 3122,
      "撞": 3123,
      "播": 3124,
      "撲": 3125,
      "操": 3126,
      "攝": 3127,
      "支": 3128,
      "收": 3129,
      "改": 3130,
      "攻": 3131,
      "放": 3132,
      "政": 3133,
      "故": 3134,
      "敏": 3135,
      "救": 3136,
      "教": 3137,
      "敢": 3138,
      "散": 3139,
      "敦": 3140,
      "敬": 3141,
      "数": 3142,
      "敵": 3143,
      "敷": 3144,
      "數": 3145,
      "文": 3146,
      "斉": 3147,
      "斎": 3148,
      "斗": 3149,
      "料": 3150,
      "斜": 3151,
      "斤": 3152,
      "斩": 3153,
      "斬": 3154,
      "断": 3155,
      "斯": 3156,
      "新": 3157,
      "方": 3158,
      "於": 3159,
      "施": 3160,
      "旅": 3161,
      "旋": 3162,
      "族": 3163,
      "旗": 3164,
      "无": 3165,
      "日": 3166,
      "旦": 3167,
      "旧": 3168,
      "早": 3169,
      "旭": 3170,
      "时": 3171,
      "旺": 3172,
      "昂": 3173,
      "昇": 3174,
      "昌": 3175,
      "明": 3176,
      "昏": 3177,
      "易": 3178,
      "昔": 3179,
      "星": 3180,
      "映": 3181,
      "春": 3182,
      "昭": 3183,
      "是": 3184,
      "昼": 3185,
      "時": 3186,
      "晉": 3187,
      "晋": 3188,
      "晒": 3189,
      "普": 3190,
      "景": 3191,
      "晴": 3192,
      "晶": 3193,
      "智": 3194,
      "暁": 3195,
      "暂": 3196,
      "暖": 3197,
      "暗": 3198,
      "暦": 3199,
      "暮": 3200,
      "暴": 3201,
      "曆": 3202,
      "曜": 3203,
      "曦": 3204,
      "曲": 3205,
      "更": 3206,
      "書": 3207,
      "曹": 3208,
      "曼": 3209,
      "曾": 3210,
      "最": 3211,
      "會": 3212,
      "月": 3213,
      "有": 3214,
      "朋": 3215,
      "服": 3216,
      "朏": 3217,
      "朔": 3218,
      "朗": 3219,
      "望": 3220,
      "朝": 3221,
      "期": 3222,
      "朧": 3223,
      "木": 3224,
      "未": 3225,
      "末": 3226,
      "本": 3227,
      "札": 3228,
      "朱": 3229,
      "朴": 3230,
      "朵": 3231,
      "机": 3232,
      "朽": 3233,
      "杀": 3234,
      "杂": 3235,
      "权": 3236,
      "李": 3237,
      "杏": 3238,
      "材": 3239,
      "村": 3240,
      "杖": 3241,
      "杜": 3242,
      "束": 3243,
      "条": 3244,
      "来": 3245,
      "杨": 3246,
      "杯": 3247,
      "東": 3248,
      "杲": 3249,
      "松": 3250,
      "板": 3251,
      "极": 3252,
      "析": 3253,
      "林": 3254,
      "枚": 3255,
      "果": 3256,
      "枝": 3257,
      "枭": 3258,
      "枯": 3259,
      "架": 3260,
      "柆": 3261,
      "柏": 3262,
      "柔": 3263,
      "柚": 3264,
      "柩": 3265,
      "柱": 3266,
      "柳": 3267,
      "柴": 3268,
      "査": 3269,
      "栄": 3270,
      "标": 3271,
      "栈": 3272,
      "树": 3273,
      "栖": 3274,
      "栗": 3275,
      "栞": 3276,
      "校": 3277,
      "株": 3278,
      "样": 3279,
      "核": 3280,
      "根": 3281,
      "格": 3282,
      "栽": 3283,
      "栾": 3284,
      "桀": 3285,
      "桂": 3286,
      "桃": 3287,
      "案": 3288,
      "桎": 3289,
      "桐": 3290,
      "桑": 3291,
      "桓": 3292,
      "桜": 3293,
      "桥": 3294,
      "桧": 3295,
      "梁": 3296,
      "梅": 3297,
      "梏": 3298,
      "梓": 3299,
      "條": 3300,
      "梦": 3301,
      "梨": 3302,
      "梭": 3303,
      "梯": 3304,
      "械": 3305,
      "梵": 3306,
      "梶": 3307,
      "棋": 3308,
      "棍": 3309,
      "棗": 3310,
      "棘": 3311,
      "棚": 3312,
      "棟": 3313,
      "森": 3314,
      "棲": 3315,
      "棵": 3316,
      "棺": 3317,
      "椅": 3318,
      "植": 3319,
      "椎": 3320,
      "椒": 3321,
      "椛": 3322,
      "検": 3323,
      "椰": 3324,
      "椿": 3325,
      "楊": 3326,
      "楚": 3327,
      "楠": 3328,
      "業": 3329,
      "楯": 3330,
      "極": 3331,
      "楼": 3332,
      "楽": 3333,
      "概": 3334,
      "榆": 3335,
      "榊": 3336,
      "榔": 3337,
      "榛": 3338,
      "榮": 3339,
      "榴": 3340,
      "槐": 3341,
      "様": 3342,
      "槤": 3343,
      "槻": 3344,
      "樂": 3345,
      "樉": 3346,
      "樊": 3347,
      "樓": 3348,
      "樗": 3349,
      "標": 3350,
      "樛": 3351,
      "模": 3352,
      "権": 3353,
      "横": 3354,
      "樱": 3355,
      "樸": 3356,
      "樹": 3357,
      "橋": 3358,
      "橘": 3359,
      "橚": 3360,
      "機": 3361,
      "橫": 3362,
      "橿": 3363,
      "檀": 3364,
      "檜": 3365,
      "檳": 3366,
      "檻": 3367,
      "櫓": 3368,
      "櫻": 3369,
      "權": 3370,
      "欒": 3371,
      "欠": 3372,
      "次": 3373,
      "欣": 3374,
      "欲": 3375,
      "欽": 3376,
      "歌": 3377,
      "歓": 3378,
      "歡": 3379,
      "止": 3380,
      "正": 3381,
      "步": 3382,
      "武": 3383,
      "歩": 3384,
      "歪": 3385,
      "歲": 3386,
      "歳": 3387,
      "歴": 3388,
      "歷": 3389,
      "歸": 3390,
      "死": 3391,
      "殊": 3392,
      "残": 3393,
      "段": 3394,
      "殺": 3395,
      "殻": 3396,
      "殿": 3397,
      "毅": 3398,
      "母": 3399,
      "毎": 3400,
      "每": 3401,
      "比": 3402,
      "毕": 3403,
      "毘": 3404,
      "毛": 3405,
      "毫": 3406,
      "毬": 3407,
      "氏": 3408,
      "民": 3409,
      "气": 3410,
      "気": 3411,
      "氣": 3412,
      "水": 3413,
      "氷": 3414,
      "永": 3415,
      "氾": 3416,
      "汇": 3417,
      "汉": 3418,
      "汐": 3419,
      "汗": 3420,
      "汝": 3421,
      "江": 3422,
      "池": 3423,
      "汤": 3424,
      "汪": 3425,
      "汰": 3426,
      "汶": 3427,
      "決": 3428,
      "汽": 3429,
      "沂": 3430,
      "沃": 3431,
      "沈": 3432,
      "沉": 3433,
      "沌": 3434,
      "沐": 3435,
      "沒": 3436,
      "沖": 3437,
      "沙": 3438,
      "沛": 3439,
      "没": 3440,
      "沢": 3441,
      "沫": 3442,
      "河": 3443,
      "沸": 3444,
      "油": 3445,
      "治": 3446,
      "沼": 3447,
      "沽": 3448,
      "泉": 3449,
      "泊": 3450,
      "法": 3451,
      "泗": 3452,
      "泡": 3453,
      "波": 3454,
      "泣": 3455,
      "泥": 3456,
      "注": 3457,
      "泰": 3458,
      "泾": 3459,
      "洁": 3460,
      "洋": 3461,
      "洛": 3462,
      "洞": 3463,
      "津": 3464,
      "洪": 3465,
      "洲": 3466,
      "活": 3467,
      "派": 3468,
      "流": 3469,
      "浅": 3470,
      "浙": 3471,
      "浚": 3472,
      "浜": 3473,
      "浦": 3474,
      "浩": 3475,
      "浪": 3476,
      "浮": 3477,
      "海": 3478,
      "消": 3479,
      "涙": 3480,
      "润": 3481,
      "涵": 3482,
      "涼": 3483,
      "淇": 3484,
      "淑": 3485,
      "淘": 3486,
      "淡": 3487,
      "淨": 3488,
      "深": 3489,
      "淳": 3490,
      "淵": 3491,
      "淹": 3492,
      "添": 3493,
      "清": 3494,
      "渊": 3495,
      "渚": 3496,
      "減": 3497,
      "渠": 3498,
      "渡": 3499,
      "渣": 3500,
      "渥": 3501,
      "渦": 3502,
      "温": 3503,
      "測": 3504,
      "港": 3505,
      "游": 3506,
      "渾": 3507,
      "湊": 3508,
      "湖": 3509,
      "湯": 3510,
      "湾": 3511,
      "満": 3512,
      "源": 3513,
      "準": 3514,
      "溜": 3515,
      "溢": 3516,
      "溪": 3517,
      "溫": 3518,
      "溶": 3519,
      "滅": 3520,
      "滋": 3521,
      "滑": 3522,
      "滨": 3523,
      "滿": 3524,
      "漁": 3525,
      "漂": 3526,
      "漆": 3527,
      "漏": 3528,
      "漠": 3529,
      "漢": 3530,
      "漫": 3531,
      "漳": 3532,
      "漸": 3533,
      "潘": 3534,
      "潜": 3535,
      "潤": 3536,
      "澄": 3537,
      "澤": 3538,
      "澪": 3539,
      "激": 3540,
      "濃": 3541,
      "濞": 3542,
      "濟": 3543,
      "瀛": 3544,
      "瀬": 3545,
      "灣": 3546,
      "火": 3547,
      "灯": 3548,
      "灰": 3549,
      "灵": 3550,
      "灶": 3551,
      "灼": 3552,
      "災": 3553,
      "灾": 3554,
      "炎": 3555,
      "炬": 3556,
      "炮": 3557,
      "炯": 3558,
      "炷": 3559,
      "炸": 3560,
      "点": 3561,
      "為": 3562,
      "炼": 3563,
      "烈": 3564,
      "烏": 3565,
      "烙": 3566,
      "烟": 3567,
      "烦": 3568,
      "烧": 3569,
      "焉": 3570,
      "焔": 3571,
      "無": 3572,
      "焦": 3573,
      "然": 3574,
      "焼": 3575,
      "煌": 3576,
      "煙": 3577,
      "煜": 3578,
      "照": 3579,
      "煩": 3580,
      "煮": 3581,
      "熊": 3582,
      "熔": 3583,
      "熙": 3584,
      "熟": 3585,
      "熱": 3586,
      "燃": 3587,
      "燈": 3588,
      "燕": 3589,
      "營": 3590,
      "爆": 3591,
      "爪": 3592,
      "爭": 3593,
      "爱": 3594,
      "爲": 3595,
      "爵": 3596,
      "父": 3597,
      "爺": 3598,
      "爻": 3599,
      "爽": 3600,
      "爾": 3601,
      "片": 3602,
      "版": 3603,
      "牌": 3604,
      "牙": 3605,
      "牛": 3606,
      "牡": 3607,
      "牢": 3608,
      "牧": 3609,
      "物": 3610,
      "牵": 3611,
      "特": 3612,
      "犖": 3613,
      "犬": 3614,
      "犯": 3615,
      "狀": 3616,
      "狂": 3617,
      "狐": 3618,
      "狗": 3619,
      "狛": 3620,
      "狡": 3621,
      "狩": 3622,
      "独": 3623,
      "狭": 3624,
      "狱": 3625,
      "狸": 3626,
      "狼": 3627,
      "猛": 3628,
      "猩": 3629,
      "猪": 3630,
      "猫": 3631,
      "献": 3632,
      "猿": 3633,
      "獄": 3634,
      "獅": 3635,
      "獣": 3636,
      "獵": 3637,
      "獻": 3638,
      "玄": 3639,
      "玉": 3640,
      "王": 3641,
      "玖": 3642,
      "玩": 3643,
      "玲": 3644,
      "珂": 3645,
      "珍": 3646,
      "珙": 3647,
      "珠": 3648,
      "現": 3649,
      "球": 3650,
      "理": 3651,
      "琦": 3652,
      "琪": 3653,
      "琬": 3654,
      "琮": 3655,
      "琴": 3656,
      "瑋": 3657,
      "瑙": 3658,
      "瑜": 3659,
      "瑞": 3660,
      "瑠": 3661,
      "瑣": 3662,
      "瑪": 3663,
      "瑾": 3664,
      "璉": 3665,
      "環": 3666,
      "璽": 3667,
      "瓊": 3668,
      "瓜": 3669,
      "瓢": 3670,
      "瓦": 3671,
      "瓩": 3672,
      "瓷": 3673,
      "甘": 3674,
      "甜": 3675,
      "生": 3676,
      "產": 3677,
      "産": 3678,
      "用": 3679,
      "甫": 3680,
      "田": 3681,
      "由": 3682,
      "甲": 3683,
      "申": 3684,
      "男": 3685,
      "町": 3686,
      "画": 3687,
      "甽": 3688,
      "界": 3689,
      "畑": 3690,
      "留": 3691,
      "畜": 3692,
      "畢": 3693,
      "略": 3694,
      "番": 3695,
      "畫": 3696,
      "異": 3697,
      "疾": 3698,
      "病": 3699,
      "症": 3700,
      "痘": 3701,
      "痛": 3702,
      "痴": 3703,
      "瘡": 3704,
      "瘤": 3705,
      "発": 3706,
      "登": 3707,
      "發": 3708,
      "白": 3709,
      "百": 3710,
      "的": 3711,
      "皇": 3712,
      "皙": 3713,
      "皮": 3714,
      "皿": 3715,
      "盆": 3716,
      "盈": 3717,
      "益": 3718,
      "盏": 3719,
      "盐": 3720,
      "监": 3721,
      "盒": 3722,
      "盗": 3723,
      "盘": 3724,
      "盛": 3725,
      "盟": 3726,
      "監": 3727,
      "盤": 3728,
      "盧": 3729,
      "目": 3730,
      "直": 3731,
      "相": 3732,
      "盼": 3733,
      "省": 3734,
      "看": 3735,
      "県": 3736,
      "眞": 3737,
      "真": 3738,
      "眼": 3739,
      "着": 3740,
      "督": 3741,
      "瞬": 3742,
      "瞳": 3743,
      "矢": 3744,
      "知": 3745,
      "矩": 3746,
      "短": 3747,
      "矮": 3748,
      "矯": 3749,
      "石": 3750,
      "砂": 3751,
      "砍": 3752,
      "研": 3753,
      "砖": 3754,
      "砲": 3755,
      "破": 3756,
      "硕": 3757,
      "硝": 3758,
      "硨": 3759,
      "碍": 3760,
      "碗": 3761,
      "碩": 3762,
      "確": 3763,
      "碼": 3764,
      "磁": 3765,
      "磅": 3766,
      "磐": 3767,
      "磨": 3768,
      "磯": 3769,
      "磲": 3770,
      "礁": 3771,
      "礎": 3772,
      "礮": 3773,
      "示": 3774,
      "礼": 3775,
      "社": 3776,
      "祀": 3777,
      "祈": 3778,
      "祐": 3779,
      "祖": 3780,
      "祚": 3781,
      "神": 3782,
      "祠": 3783,
      "祥": 3784,
      "票": 3785,
      "祭": 3786,
      "祺": 3787,
      "祿": 3788,
      "禁": 3789,
      "禄": 3790,
      "禎": 3791,
      "福": 3792,
      "禦": 3793,
      "禮": 3794,
      "禰": 3795,
      "禺": 3796,
      "禾": 3797,
      "秀": 3798,
      "私": 3799,
      "秋": 3800,
      "科": 3801,
      "秒": 3802,
      "秘": 3803,
      "租": 3804,
      "秤": 3805,
      "秦": 3806,
      "移": 3807,
      "程": 3808,
      "稔": 3809,
      "稚": 3810,
      "種": 3811,
      "稲": 3812,
      "稷": 3813,
      "穂": 3814,
      "穌": 3815,
      "積": 3816,
      "穎": 3817,
      "穗": 3818,
      "穢": 3819,
      "究": 3820,
      "空": 3821,
      "突": 3822,
      "窓": 3823,
      "窗": 3824,
      "窟": 3825,
      "竇": 3826,
      "立": 3827,
      "站": 3828,
      "竜": 3829,
      "章": 3830,
      "童": 3831,
      "端": 3832,
      "竹": 3833,
      "竺": 3834,
      "笑": 3835,
      "笔": 3836,
      "笛": 3837,
      "笠": 3838,
      "符": 3839,
      "笨": 3840,
      "第": 3841,
      "笹": 3842,
      "筆": 3843,
      "等": 3844,
      "筋": 3845,
      "筍": 3846,
      "筐": 3847,
      "筑": 3848,
      "答": 3849,
      "策": 3850,
      "筹": 3851,
      "箇": 3852,
      "算": 3853,
      "管": 3854,
      "箪": 3855,
      "箭": 3856,
      "箱": 3857,
      "節": 3858,
      "範": 3859,
      "篇": 3860,
      "篋": 3861,
      "篚": 3862,
      "篤": 3863,
      "簡": 3864,
      "簿": 3865,
      "籃": 3866,
      "籌": 3867,
      "籍": 3868,
      "籠": 3869,
      "米": 3870,
      "籵": 3871,
      "粁": 3872,
      "粉": 3873,
      "粍": 3874,
      "粟": 3875,
      "粥": 3876,
      "粨": 3877,
      "精": 3878,
      "糊": 3879,
      "糎": 3880,
      "糖": 3881,
      "糸": 3882,
      "系": 3883,
      "紀": 3884,
      "約": 3885,
      "紅": 3886,
      "紋": 3887,
      "納": 3888,
      "純": 3889,
      "紘": 3890,
      "紙": 3891,
      "級": 3892,
      "素": 3893,
      "紡": 3894,
      "紫": 3895,
      "細": 3896,
      "紹": 3897,
      "紺": 3898,
      "終": 3899,
      "組": 3900,
      "絆": 3901,
      "経": 3902,
      "結": 3903,
      "絡": 3904,
      "給": 3905,
      "統": 3906,
      "絵": 3907,
      "絶": 3908,
      "綁": 3909,
      "經": 3910,
      "継": 3911,
      "続": 3912,
      "綜": 3913,
      "綠": 3914,
      "維": 3915,
      "綯": 3916,
      "綱": 3917,
      "網": 3918,
      "綸": 3919,
      "綺": 3920,
      "綾": 3921,
      "緋": 3922,
      "総": 3923,
      "緑": 3924,
      "緒": 3925,
      "線": 3926,
      "締": 3927,
      "編": 3928,
      "緩": 3929,
      "緯": 3930,
      "縄": 3931,
      "縊": 3932,
      "縣": 3933,
      "總": 3934,
      "繋": 3935,
      "織": 3936,
      "繼": 3937,
      "續": 3938,
      "红": 3939,
      "级": 3940,
      "纪": 3941,
      "纯": 3942,
      "纲": 3943,
      "纵": 3944,
      "线": 3945,
      "组": 3946,
      "绅": 3947,
      "细": 3948,
      "终": 3949,
      "绍": 3950,
      "经": 3951,
      "给": 3952,
      "统": 3953,
      "继": 3954,
      "绮": 3955,
      "维": 3956,
      "综": 3957,
      "缽": 3958,
      "网": 3959,
      "罗": 3960,
      "罠": 3961,
      "罪": 3962,
      "置": 3963,
      "罰": 3964,
      "罸": 3965,
      "羅": 3966,
      "羊": 3967,
      "美": 3968,
      "群": 3969,
      "義": 3970,
      "羽": 3971,
      "翁": 3972,
      "習": 3973,
      "翔": 3974,
      "翘": 3975,
      "翠": 3976,
      "翡": 3977,
      "翱": 3978,
      "翹": 3979,
      "翻": 3980,
      "翼": 3981,
      "老": 3982,
      "考": 3983,
      "者": 3984,
      "耆": 3985,
      "而": 3986,
      "耕": 3987,
      "耳": 3988,
      "耶": 3989,
      "耿": 3990,
      "聃": 3991,
      "联": 3992,
      "聖": 3993,
      "聘": 3994,
      "聚": 3995,
      "聞": 3996,
      "聡": 3997,
      "聯": 3998,
      "聰": 3999,
      "聲": 4000,
      "職": 4001,
      "肃": 4002,
      "肉": 4003,
      "肖": 4004,
      "肚": 4005,
      "股": 4006,
      "肥": 4007,
      "肩": 4008,
      "育": 4009,
      "胞": 4010,
      "胠": 4011,
      "胡": 4012,
      "胤": 4013,
      "胴": 4014,
      "胸": 4015,
      "能": 4016,
      "脂": 4017,
      "脇": 4018,
      "脈": 4019,
      "脉": 4020,
      "脚": 4021,
      "脩": 4022,
      "脱": 4023,
      "脳": 4024,
      "腎": 4025,
      "腐": 4026,
      "腰": 4027,
      "腹": 4028,
      "腿": 4029,
      "膀": 4030,
      "膺": 4031,
      "臂": 4032,
      "臘": 4033,
      "臚": 4034,
      "臣": 4035,
      "臨": 4036,
      "自": 4037,
      "臭": 4038,
      "至": 4039,
      "致": 4040,
      "臺": 4041,
      "與": 4042,
      "興": 4043,
      "舍": 4044,
      "舎": 4045,
      "舞": 4046,
      "舟": 4047,
      "航": 4048,
      "船": 4049,
      "艦": 4050,
      "良": 4051,
      "色": 4052,
      "艳": 4053,
      "艶": 4054,
      "艺": 4055,
      "节": 4056,
      "芒": 4057,
      "芙": 4058,
      "芝": 4059,
      "芦": 4060,
      "芬": 4061,
      "芭": 4062,
      "芮": 4063,
      "芯": 4064,
      "花": 4065,
      "芳": 4066,
      "芸": 4067,
      "芹": 4068,
      "芽": 4069,
      "苏": 4070,
      "苑": 4071,
      "苗": 4072,
      "苣": 4073,
      "若": 4074,
      "英": 4075,
      "苺": 4076,
      "茂": 4077,
      "范": 4078,
      "茅": 4079,
      "茜": 4080,
      "茶": 4081,
      "茸": 4082,
      "草": 4083,
      "荊": 4084,
      "荒": 4085,
      "荔": 4086,
      "荘": 4087,
      "荥": 4088,
      "荪": 4089,
      "荫": 4090,
      "药": 4091,
      "荷": 4092,
      "荻": 4093,
      "荼": 4094,
      "莉": 4095,
      "莊": 4096,
      "莎": 4097,
      "莘": 4098,
      "莞": 4099,
      "莫": 4100,
      "莱": 4101,
      "莲": 4102,
      "莴": 4103,
      "菇": 4104,
      "菉": 4105,
      "菊": 4106,
      "菜": 4107,
      "華": 4108,
      "菱": 4109,
      "菲": 4110,
      "萌": 4111,
      "萍": 4112,
      "萝": 4113,
      "营": 4114,
      "萧": 4115,
      "萨": 4116,
      "萬": 4117,
      "落": 4118,
      "葆": 4119,
      "葉": 4120,
      "著": 4121,
      "葛": 4122,
      "董": 4123,
      "葦": 4124,
      "葫": 4125,
      "葵": 4126,
      "蒙": 4127,
      "蒭": 4128,
      "蒲": 4129,
      "蒼": 4130,
      "蒿": 4131,
      "蓀": 4132,
      "蓑": 4133,
      "蓝": 4134,
      "蓮": 4135,
      "蔡": 4136,
      "蔭": 4137,
      "蔵": 4138,
      "蕃": 4139,
      "蕉": 4140,
      "蕨": 4141,
      "蕩": 4142,
      "蕭": 4143,
      "薇": 4144,
      "薊": 4145,
      "薔": 4146,
      "薙": 4147,
      "薛": 4148,
      "薩": 4149,
      "薫": 4150,
      "薯": 4151,
      "藍": 4152,
      "藏": 4153,
      "藕": 4154,
      "藝": 4155,
      "藤": 4156,
      "藥": 4157,
      "藩": 4158,
      "藻": 4159,
      "蘄": 4160,
      "蘅": 4161,
      "蘇": 4162,
      "蘑": 4163,
      "蘭": 4164,
      "虎": 4165,
      "虐": 4166,
      "虔": 4167,
      "處": 4168,
      "虚": 4169,
      "虛": 4170,
      "號": 4171,
      "虫": 4172,
      "虹": 4173,
      "蛇": 4174,
      "蛍": 4175,
      "蛙": 4176,
      "蛭": 4177,
      "蜃": 4178,
      "蜡": 4179,
      "蝉": 4180,
      "蝕": 4181,
      "蝶": 4182,
      "融": 4183,
      "螺": 4184,
      "蟲": 4185,
      "蠕": 4186,
      "蠻": 4187,
      "血": 4188,
      "衆": 4189,
      "行": 4190,
      "術": 4191,
      "街": 4192,
      "衙": 4193,
      "衛": 4194,
      "衝": 4195,
      "衡": 4196,
      "衢": 4197,
      "衣": 4198,
      "补": 4199,
      "表": 4200,
      "袁": 4201,
      "袈": 4202,
      "袖": 4203,
      "被": 4204,
      "裁": 4205,
      "裂": 4206,
      "装": 4207,
      "裏": 4208,
      "裔": 4209,
      "裕": 4210,
      "補": 4211,
      "裟": 4212,
      "裳": 4213,
      "裸": 4214,
      "製": 4215,
      "褒": 4216,
      "襄": 4217,
      "襟": 4218,
      "襲": 4219,
      "西": 4220,
      "要": 4221,
      "覇": 4222,
      "見": 4223,
      "規": 4224,
      "視": 4225,
      "覚": 4226,
      "親": 4227,
      "観": 4228,
      "覺": 4229,
      "觀": 4230,
      "观": 4231,
      "角": 4232,
      "解": 4233,
      "触": 4234,
      "觳": 4235,
      "言": 4236,
      "計": 4237,
      "記": 4238,
      "設": 4239,
      "許": 4240,
      "訳": 4241,
      "証": 4242,
      "詔": 4243,
      "詞": 4244,
      "詠": 4245,
      "試": 4246,
      "詩": 4247,
      "話": 4248,
      "誌": 4249,
      "誐": 4250,
      "誒": 4251,
      "誓": 4252,
      "誕": 4253,
      "誘": 4254,
      "語": 4255,
      "誠": 4256,
      "誡": 4257,
      "誦": 4258,
      "說": 4259,
      "説": 4260,
      "読": 4261,
      "誰": 4262,
      "課": 4263,
      "調": 4264,
      "談": 4265,
      "論": 4266,
      "諭": 4267,
      "諷": 4268,
      "諸": 4269,
      "謀": 4270,
      "謁": 4271,
      "謎": 4272,
      "謙": 4273,
      "講": 4274,
      "謝": 4275,
      "謡": 4276,
      "識": 4277,
      "譚": 4278,
      "譜": 4279,
      "警": 4280,
      "議": 4281,
      "護": 4282,
      "讀": 4283,
      "變": 4284,
      "讐": 4285,
      "讓": 4286,
      "计": 4287,
      "让": 4288,
      "议": 4289,
      "许": 4290,
      "论": 4291,
      "讼": 4292,
      "诉": 4293,
      "词": 4294,
      "诗": 4295,
      "诚": 4296,
      "话": 4297,
      "语": 4298,
      "诶": 4299,
      "请": 4300,
      "诺": 4301,
      "读": 4302,
      "课": 4303,
      "谁": 4304,
      "谦": 4305,
      "谭": 4306,
      "谷": 4307,
      "豆": 4308,
      "豊": 4309,
      "豌": 4310,
      "豐": 4311,
      "豚": 4312,
      "象": 4313,
      "豪": 4314,
      "豫": 4315,
      "豬": 4316,
      "豹": 4317,
      "貓": 4318,
      "貝": 4319,
      "貞": 4320,
      "負": 4321,
      "財": 4322,
      "貫": 4323,
      "貴": 4324,
      "費": 4325,
      "賀": 4326,
      "資": 4327,
      "賈": 4328,
      "賊": 4329,
      "賓": 4330,
      "賞": 4331,
      "賢": 4332,
      "賦": 4333,
      "質": 4334,
      "購": 4335,
      "贝": 4336,
      "贞": 4337,
      "财": 4338,
      "贤": 4339,
      "质": 4340,
      "贵": 4341,
      "贺": 4342,
      "贼": 4343,
      "资": 4344,
      "赤": 4345,
      "赭": 4346,
      "走": 4347,
      "赵": 4348,
      "起": 4349,
      "超": 4350,
      "越": 4351,
      "趙": 4352,
      "足": 4353,
      "跆": 4354,
      "跑": 4355,
      "跖": 4356,
      "跟": 4357,
      "跡": 4358,
      "路": 4359,
      "跳": 4360,
      "踊": 4361,
      "踏": 4362,
      "踢": 4363,
      "蹴": 4364,
      "身": 4365,
      "車": 4366,
      "軌": 4367,
      "軍": 4368,
      "軒": 4369,
      "転": 4370,
      "軽": 4371,
      "載": 4372,
      "輔": 4373,
      "輛": 4374,
      "輝": 4375,
      "輪": 4376,
      "輿": 4377,
      "轉": 4378,
      "车": 4379,
      "轩": 4380,
      "转": 4381,
      "辆": 4382,
      "辉": 4383,
      "辛": 4384,
      "辣": 4385,
      "辭": 4386,
      "辯": 4387,
      "辰": 4388,
      "農": 4389,
      "边": 4390,
      "辺": 4391,
      "辽": 4392,
      "达": 4393,
      "辿": 4394,
      "迄": 4395,
      "迅": 4396,
      "过": 4397,
      "迈": 4398,
      "运": 4399,
      "近": 4400,
      "返": 4401,
      "这": 4402,
      "进": 4403,
      "远": 4404,
      "迦": 4405,
      "迪": 4406,
      "述": 4407,
      "迷": 4408,
      "追": 4409,
      "送": 4410,
      "适": 4411,
      "逆": 4412,
      "选": 4413,
      "這": 4414,
      "通": 4415,
      "造": 4416,
      "逢": 4417,
      "連": 4418,
      "逯": 4419,
      "週": 4420,
      "進": 4421,
      "遁": 4422,
      "遇": 4423,
      "遊": 4424,
      "運": 4425,
      "遍": 4426,
      "過": 4427,
      "道": 4428,
      "達": 4429,
      "遗": 4430,
      "遙": 4431,
      "遜": 4432,
      "遠": 4433,
      "遥": 4434,
      "遮": 4435,
      "選": 4436,
      "遺": 4437,
      "遼": 4438,
      "避": 4439,
      "邁": 4440,
      "還": 4441,
      "邊": 4442,
      "邑": 4443,
      "邓": 4444,
      "那": 4445,
      "邦": 4446,
      "邪": 4447,
      "邱": 4448,
      "郁": 4449,
      "郊": 4450,
      "郎": 4451,
      "郑": 4452,
      "郛": 4453,
      "郝": 4454,
      "郡": 4455,
      "部": 4456,
      "郭": 4457,
      "郷": 4458,
      "都": 4459,
      "鄧": 4460,
      "鄭": 4461,
      "酈": 4462,
      "酉": 4463,
      "酒": 4464,
      "酔": 4465,
      "酥": 4466,
      "酱": 4467,
      "酷": 4468,
      "酸": 4469,
      "醋": 4470,
      "醒": 4471,
      "醫": 4472,
      "采": 4473,
      "釈": 4474,
      "釋": 4475,
      "里": 4476,
      "重": 4477,
      "野": 4478,
      "量": 4479,
      "金": 4480,
      "釗": 4481,
      "釣": 4482,
      "鈍": 4483,
      "鈴": 4484,
      "鉄": 4485,
      "鉢": 4486,
      "鉦": 4487,
      "鉱": 4488,
      "鉴": 4489,
      "銀": 4490,
      "銃": 4491,
      "銅": 4492,
      "銓": 4493,
      "銖": 4494,
      "銘": 4495,
      "銳": 4496,
      "鋒": 4497,
      "鋪": 4498,
      "鋼": 4499,
      "錄": 4500,
      "錡": 4501,
      "錦": 4502,
      "錬": 4503,
      "録": 4504,
      "鍋": 4505,
      "鍵": 4506,
      "鎖": 4507,
      "鎧": 4508,
      "鎮": 4509,
      "鏡": 4510,
      "鐘": 4511,
      "鐵": 4512,
      "鐸": 4513,
      "鑒": 4514,
      "钊": 4515,
      "钢": 4516,
      "钦": 4517,
      "钱": 4518,
      "铁": 4519,
      "铎": 4520,
      "铜": 4521,
      "铭": 4522,
      "铺": 4523,
      "锡": 4524,
      "键": 4525,
      "镇": 4526,
      "镗": 4527,
      "镜": 4528,
      "長": 4529,
      "长": 4530,
      "門": 4531,
      "閃": 4532,
      "開": 4533,
      "閏": 4534,
      "閒": 4535,
      "間": 4536,
      "関": 4537,
      "閣": 4538,
      "閨": 4539,
      "闇": 4540,
      "闍": 4541,
      "闕": 4542,
      "闘": 4543,
      "關": 4544,
      "门": 4545,
      "问": 4546,
      "闯": 4547,
      "阁": 4548,
      "阪": 4549,
      "防": 4550,
      "阳": 4551,
      "阿": 4552,
      "陀": 4553,
      "附": 4554,
      "际": 4555,
      "陈": 4556,
      "降": 4557,
      "限": 4558,
      "陛": 4559,
      "院": 4560,
      "陣": 4561,
      "除": 4562,
      "陪": 4563,
      "陳": 4564,
      "陵": 4565,
      "陶": 4566,
      "陸": 4567,
      "険": 4568,
      "陽": 4569,
      "隆": 4570,
      "隊": 4571,
      "階": 4572,
      "隔": 4573,
      "隗": 4574,
      "隠": 4575,
      "隣": 4576,
      "隱": 4577,
      "隴": 4578,
      "隸": 4579,
      "隻": 4580,
      "隼": 4581,
      "雀": 4582,
      "雁": 4583,
      "雄": 4584,
      "雅": 4585,
      "集": 4586,
      "雇": 4587,
      "雉": 4588,
      "雎": 4589,
      "雕": 4590,
      "雙": 4591,
      "雛": 4592,
      "雜": 4593,
      "雞": 4594,
      "離": 4595,
      "難": 4596,
      "雨": 4597,
      "雪": 4598,
      "雲": 4599,
      "雳": 4600,
      "零": 4601,
      "雷": 4602,
      "電": 4603,
      "雾": 4604,
      "需": 4605,
      "霆": 4606,
      "震": 4607,
      "霊": 4608,
      "霍": 4609,
      "霖": 4610,
      "霜": 4611,
      "霞": 4612,
      "霧": 4613,
      "霰": 4614,
      "露": 4615,
      "霸": 4616,
      "霹": 4617,
      "靂": 4618,
      "靈": 4619,
      "青": 4620,
      "靖": 4621,
      "静": 4622,
      "非": 4623,
      "靠": 4624,
      "面": 4625,
      "革": 4626,
      "靴": 4627,
      "靼": 4628,
      "鞋": 4629,
      "鞍": 4630,
      "鞠": 4631,
      "韃": 4632,
      "韋": 4633,
      "韓": 4634,
      "韦": 4635,
      "韩": 4636,
      "韭": 4637,
      "音": 4638,
      "韶": 4639,
      "響": 4640,
      "頃": 4641,
      "項": 4642,
      "順": 4643,
      "須": 4644,
      "頌": 4645,
      "領": 4646,
      "頭": 4647,
      "顆": 4648,
      "題": 4649,
      "額": 4650,
      "顏": 4651,
      "顔": 4652,
      "願": 4653,
      "顯": 4654,
      "项": 4655,
      "顾": 4656,
      "颂": 4657,
      "颊": 4658,
      "颖": 4659,
      "颗": 4660,
      "颜": 4661,
      "風": 4662,
      "颪": 4663,
      "颱": 4664,
      "飄": 4665,
      "风": 4666,
      "飛": 4667,
      "飞": 4668,
      "食": 4669,
      "飯": 4670,
      "飾": 4671,
      "餅": 4672,
      "養": 4673,
      "餓": 4674,
      "館": 4675,
      "饼": 4676,
      "馆": 4677,
      "馒": 4678,
      "首": 4679,
      "香": 4680,
      "馬": 4681,
      "馮": 4682,
      "駆": 4683,
      "駐": 4684,
      "駒": 4685,
      "駙": 4686,
      "駢": 4687,
      "駿": 4688,
      "騎": 4689,
      "騒": 4690,
      "験": 4691,
      "騭": 4692,
      "騰": 4693,
      "騷": 4694,
      "驁": 4695,
      "驚": 4696,
      "驤": 4697,
      "马": 4698,
      "驰": 4699,
      "骨": 4700,
      "骸": 4701,
      "髀": 4702,
      "高": 4703,
      "髪": 4704,
      "鬘": 4705,
      "鬥": 4706,
      "鬪": 4707,
      "鬼": 4708,
      "魂": 4709,
      "魄": 4710,
      "魔": 4711,
      "魚": 4712,
      "魯": 4713,
      "鮑": 4714,
      "鮫": 4715,
      "鮮": 4716,
      "鯖": 4717,
      "鯵": 4718,
      "鰐": 4719,
      "鱀": 4720,
      "鱼": 4721,
      "鲁": 4722,
      "鲤": 4723,
      "鳥": 4724,
      "鳩": 4725,
      "鳳": 4726,
      "鳴": 4727,
      "鳶": 4728,
      "鴉": 4729,
      "鴣": 4730,
      "鴨": 4731,
      "鴻": 4732,
      "鵡": 4733,
      "鵩": 4734,
      "鵬": 4735,
      "鶍": 4736,
      "鶴": 4737,
      "鷓": 4738,
      "鷹": 4739,
      "鷺": 4740,
      "鸚": 4741,
      "鸟": 4742,
      "鸡": 4743,
      "鸭": 4744,
      "鸿": 4745,
      "鹅": 4746,
      "鹹": 4747,
      "鹼": 4748,
      "鹽": 4749,
      "鹿": 4750,
      "麗": 4751,
      "麥": 4752,
      "麵": 4753,
      "麻": 4754,
      "麼": 4755,
      "麾": 4756,
      "黃": 4757,
      "黄": 4758,
      "黎": 4759,
      "黑": 4760,
      "黒": 4761,
      "黙": 4762,
      "黛": 4763,
      "黨": 4764,
      "鼉": 4765,
      "鼎": 4766,
      "鼓": 4767,
      "鼠": 4768,
      "鼻": 4769,
      "齉": 4770,
      "齊": 4771,
      "齋": 4772,
      "齐": 4773,
      "龍": 4774,
      "龙": 4775,
      "ꜛ": 4776,
      "ꜜ": 4777,
      "ꜣ": 4778,
      "ꜩ": 4779,
      "ꜫ": 4780,
      "ꜭ": 4781,
      "ꞅ": 4782,
      "ꞎ": 4783,
      "Ʞ": 4784,
      "ꞵ": 4785,
      "ꦂ": 4786,
      "ꦠ": 4787,
      "ꦯ": 4788,
      "ꦲ": 4789,
      "ꦸ": 4790,
      "ꭓ": 4791,
      "가": 4792,
      "간": 4793,
      "강": 4794,
      "개": 4795,
      "거": 4796,
      "건": 4797,
      "경": 4798,
      "계": 4799,
      "고": 4800,
      "공": 4801,
      "관": 4802,
      "광": 4803,
      "구": 4804,
      "국": 4805,
      "권": 4806,
      "귀": 4807,
      "그": 4808,
      "극": 4809,
      "근": 4810,
      "글": 4811,
      "금": 4812,
      "급": 4813,
      "기": 4814,
      "김": 4815,
      "꺼": 4816,
      "껐": 4817,
      "나": 4818,
      "날": 4819,
      "남": 4820,
      "났": 4821,
      "내": 4822,
      "너": 4823,
      "네": 4824,
      "념": 4825,
      "노": 4826,
      "놔": 4827,
      "눈": 4828,
      "늬": 4829,
      "다": 4830,
      "단": 4831,
      "대": 4832,
      "더": 4833,
      "도": 4834,
      "독": 4835,
      "돌": 4836,
      "동": 4837,
      "디": 4838,
      "딱": 4839,
      "라": 4840,
      "람": 4841,
      "래": 4842,
      "런": 4843,
      "렌": 4844,
      "려": 4845,
      "렬": 4846,
      "로": 4847,
      "록": 4848,
      "론": 4849,
      "루": 4850,
      "류": 4851,
      "르": 4852,
      "를": 4853,
      "리": 4854,
      "립": 4855,
      "마": 4856,
      "막": 4857,
      "만": 4858,
      "말": 4859,
      "명": 4860,
      "목": 4861,
      "무": 4862,
      "문": 4863,
      "물": 4864,
      "미": 4865,
      "민": 4866,
      "믿": 4867,
      "바": 4868,
      "박": 4869,
      "방": 4870,
      "백": 4871,
      "뱅": 4872,
      "버": 4873,
      "범": 4874,
      "법": 4875,
      "별": 4876,
      "병": 4877,
      "보": 4878,
      "복": 4879,
      "봐": 4880,
      "부": 4881,
      "불": 4882,
      "붉": 4883,
      "빅": 4884,
      "빙": 4885,
      "빤": 4886,
      "뿐": 4887,
      "사": 4888,
      "산": 4889,
      "살": 4890,
      "삼": 4891,
      "삿": 4892,
      "상": 4893,
      "새": 4894,
      "색": 4895,
      "서": 4896,
      "성": 4897,
      "센": 4898,
      "소": 4899,
      "쇼": 4900,
      "수": 4901,
      "순": 4902,
      "술": 4903,
      "숫": 4904,
      "스": 4905,
      "시": 4906,
      "식": 4907,
      "신": 4908,
      "실": 4909,
      "쌤": 4910,
      "아": 4911,
      "안": 4912,
      "알": 4913,
      "암": 4914,
      "앙": 4915,
      "애": 4916,
      "앤": 4917,
      "야": 4918,
      "양": 4919,
      "어": 4920,
      "에": 4921,
      "엔": 4922,
      "연": 4923,
      "영": 4924,
      "예": 4925,
      "오": 4926,
      "온": 4927,
      "왜": 4928,
      "용": 4929,
      "운": 4930,
      "울": 4931,
      "원": 4932,
      "위": 4933,
      "유": 4934,
      "은": 4935,
      "을": 4936,
      "음": 4937,
      "의": 4938,
      "이": 4939,
      "인": 4940,
      "일": 4941,
      "자": 4942,
      "장": 4943,
      "재": 4944,
      "적": 4945,
      "전": 4946,
      "점": 4947,
      "정": 4948,
      "제": 4949,
      "조": 4950,
      "종": 4951,
      "좋": 4952,
      "주": 4953,
      "줄": 4954,
      "중": 4955,
      "지": 4956,
      "진": 4957,
      "집": 4958,
      "짓": 4959,
      "징": 4960,
      "차": 4961,
      "천": 4962,
      "청": 4963,
      "체": 4964,
      "쳐": 4965,
      "초": 4966,
      "춘": 4967,
      "충": 4968,
      "치": 4969,
      "커": 4970,
      "코": 4971,
      "킨": 4972,
      "타": 4973,
      "태": 4974,
      "터": 4975,
      "퇴": 4976,
      "투": 4977,
      "트": 4978,
      "특": 4979,
      "파": 4980,
      "판": 4981,
      "퍼": 4982,
      "평": 4983,
      "표": 4984,
      "풍": 4985,
      "피": 4986,
      "하": 4987,
      "학": 4988,
      "한": 4989,
      "합": 4990,
      "해": 4991,
      "행": 4992,
      "향": 4993,
      "허": 4994,
      "헬": 4995,
      "호": 4996,
      "혹": 4997,
      "홀": 4998,
      "화": 4999,
      "회": 5000,
      "후": 5001,
      "희": 5002,
      "ﬀ": 5003,
      "ﬁ": 5004,
      "ﬂ": 5005,
      "ﮭ": 5006,
      "ﮮ": 5007,
      "ﷲ": 5008,
      "ﷺ": 5009,
      "️": 5010,
      "︠": 5011,
      "︡": 5012,
      "ﺒ": 5013,
      "ﻉ": 5014,
      "ﻋ": 5015,
      "ﻔ": 5016,
      "ﻴ": 5017,
      "﻿": 5018,
      "！": 5019,
      "％": 5020,
      "＆": 5021,
      "（": 5022,
      "）": 5023,
      "，": 5024,
      "－": 5025,
      "／": 5026,
      "１": 5027,
      "２": 5028,
      "３": 5029,
      "４": 5030,
      "６": 5031,
      "：": 5032,
      "＜": 5033,
      "＝": 5034,
      "＞": 5035,
      "？": 5036,
      "Ａ": 5037,
      "Ｃ": 5038,
      "Ｄ": 5039,
      "Ｇ": 5040,
      "Ｉ": 5041,
      "Ｊ": 5042,
      "Ｌ": 5043,
      "Ｍ": 5044,
      "Ｐ": 5045,
      "Ｒ": 5046,
      "Ｘ": 5047,
      "［": 5048,
      "］": 5049,
      "｜": 5050,
      "～": 5051,
      "｢": 5052,
      "｣": 5053,
      "･": 5054,
      "ｰ": 5055,
      "￥": 5056,
      "�": 5057,
      "𐀁": 5058,
      "𐀈": 5059,
      "𐀫": 5060,
      "𐎠": 5061,
      "𐎢": 5062,
      "𐎭": 5063,
      "𐎰": 5064,
      "𐎹": 5065,
      "𐎺": 5066,
      "𐎼": 5067,
      "𐏁": 5068,
      "𐭃": 5069,
      "𐭉": 5070,
      "𐭓": 5071,
      "𐭕": 5072,
      "𒀯": 5073,
      "𒀳": 5074,
      "𝕄": 5075,
      "𝕡": 5076,
      "🖕": 5077,
      "th": 5078,
      "in": 5079,
      "er": 5080,
      "an": 5081,
      "the": 5082,
      "on": 5083,
      "ed": 5084,
      "re": 5085,
      "at": 5086,
      "en": 5087,
      "or": 5088,
      "al": 5089,
      "st": 5090,
      "ar": 5091,
      "and": 5092,
      "as": 5093,
      "of": 5094,
      "ing": 5095,
      "es": 5096,
      "to": 5097,
      "is": 5098,
      "it": 5099,
      "ou": 5100,
      "ic": 5101,
      "ion": 5102,
      "le": 5103,
      "he": 5104,
      "ro": 5105,
      "il": 5106,
      "ac": 5107,
      "ent": 5108,
      "ad": 5109,
      "se": 5110,
      "am": 5111,
      "om": 5112,
      "be": 5113,
      "ly": 5114,
      "was": 5115,
      "for": 5116,
      "ch": 5117,
      "ve": 5118,
      "de": 5119,
      "ur": 5120,
      "ol": 5121,
      "ir": 5122,
      "The": 5123,
      "im": 5124,
      "-@": 5125,
      "@-@": 5126,
      "ig": 5127,
      "ver": 5128,
      "ter": 5129,
      "wh": 5130,
      "ow": 5131,
      "un": 5132,
      "ith": 5133,
      "ce": 5134,
      "ay": 5135,
      "id": 5136,
      "con": 5137,
      "ation": 5138,
      "ct": 5139,
      "with": 5140,
      "ag": 5141,
      "that": 5142,
      "te": 5143,
      "by": 5144,
      "us": 5145,
      "ot": 5146,
      "el": 5147,
      "ere": 5148,
      "ri": 5149,
      "ul": 5150,
      "ap": 5151,
      "et": 5152,
      "ut": 5153,
      "19": 5154,
      "res": 5155,
      "ain": 5156,
      "ers": 5157,
      "op": 5158,
      "pl": 5159,
      "com": 5160,
      "his": 5161,
      "rom": 5162,
      "um": 5163,
      "all": 5164,
      "00": 5165,
      "ab": 5166,
      "oun": 5167,
      "ist": 5168,
      "mo": 5169,
      "su": 5170,
      "ne": 5171,
      "sh": 5172,
      "pro": 5173,
      "pe": 5174,
      "from": 5175,
      "In": 5176,
      "cl": 5177,
      "ate": 5178,
      "are": 5179,
      "li": 5180,
      "tr": 5181,
      "art": 5182,
      "ther": 5183,
      "os": 5184,
      "igh": 5185,
      "em": 5186,
      "di": 5187,
      "ex": 5188,
      "ber": 5189,
      "est": 5190,
      "ich": 5191,
      "ak": 5192,
      "were": 5193,
      "ld": 5194,
      "oc": 5195,
      "ill": 5196,
      "ard": 5197,
      "ast": 5198,
      "ies": 5199,
      "ant": 5200,
      "per": 5201,
      "ong": 5202,
      "qu": 5203,
      "gh": 5204,
      "ment": 5205,
      "ated": 5206,
      "man": 5207,
      "ive": 5208,
      "out": 5209,
      "ame": 5210,
      "ity": 5211,
      "ess": 5212,
      "fe": 5213,
      "od": 5214,
      "our": 5215,
      "had": 5216,
      "end": 5217,
      "ish": 5218,
      "ack": 5219,
      "ort": 5220,
      "one": 5221,
      "als": 5222,
      "av": 5223,
      "ge": 5224,
      "over": 5225,
      "ear": 5226,
      "tw": 5227,
      "af": 5228,
      "ip": 5229,
      "which": 5230,
      "ough": 5231,
      "der": 5232,
      "but": 5233,
      "not": 5234,
      "vi": 5235,
      "gr": 5236,
      "ass": 5237,
      "act": 5238,
      "ally": 5239,
      "ound": 5240,
      "ave": 5241,
      "str": 5242,
      "ine": 5243,
      "ight": 5244,
      "her": 5245,
      "ary": 5246,
      "rit": 5247,
      "ud": 5248,
      "its": 5249,
      "iv": 5250,
      "du": 5251,
      "pr": 5252,
      "ian": 5253,
      "ep": 5254,
      "if": 5255,
      "St": 5256,
      "Ch": 5257,
      "ore": 5258,
      "20": 5259,
      "wor": 5260,
      "fir": 5261,
      "up": 5262,
      "200": 5263,
      "ew": 5264,
      "ia": 5265,
      "ould": 5266,
      "cor": 5267,
      "au": 5268,
      "ous": 5269,
      "own": 5270,
      "bo": 5271,
      "bl": 5272,
      "aw": 5273,
      "ach": 5274,
      "ction": 5275,
      "ev": 5276,
      "comp": 5277,
      "age": 5278,
      "ke": 5279,
      "att": 5280,
      "land": 5281,
      "first": 5282,
      "port": 5283,
      "ign": 5284,
      "ition": 5285,
      "form": 5286,
      "si": 5287,
      "their": 5288,
      "ical": 5289,
      "lo": 5290,
      "low": 5291,
      "ial": 5292,
      "ser": 5293,
      "tim": 5294,
      "ll": 5295,
      "po": 5296,
      "ater": 5297,
      "also": 5298,
      "He": 5299,
      "who": 5300,
      "br": 5301,
      "int": 5302,
      "part": 5303,
      "ure": 5304,
      "18": 5305,
      "cre": 5306,
      "has": 5307,
      "other": 5308,
      "ans": 5309,
      "have": 5310,
      "ome": 5311,
      "play": 5312,
      "pt": 5313,
      "ust": 5314,
      "ok": 5315,
      "off": 5316,
      "cont": 5317,
      ".@": 5318,
      "@.@": 5319,
      "two": 5320,
      "ile": 5321,
      "ree": 5322,
      "ence": 5323,
      "co": 5324,
      "pres": 5325,
      "uring": 5326,
      "me": 5327,
      "been": 5328,
      "pre": 5329,
      "ice": 5330,
      "we": 5331,
      "ance": 5332,
      "mer": 5333,
      "dis": 5334,
      ",@": 5335,
      "@,@": 5336,
      "201": 5337,
      "Th": 5338,
      "pos": 5339,
      "It": 5340,
      "ph": 5341,
      "this": 5342,
      "ory": 5343,
      "year": 5344,
      "after": 5345,
      "ult": 5346,
      "ell": 5347,
      "ren": 5348,
      "des": 5349,
      "ace": 5350,
      "ved": 5351,
      "sc": 5352,
      "fin": 5353,
      "ark": 5354,
      "An": 5355,
      "cent": 5356,
      "able": 5357,
      "ade": 5358,
      "mon": 5359,
      "they": 5360,
      "incl": 5361,
      "ue": 5362,
      "ite": 5363,
      "ang": 5364,
      "ail": 5365,
      "Un": 5366,
      "work": 5367,
      "ever": 5368,
      "ced": 5369,
      "ff": 5370,
      "air": 5371,
      "cr": 5372,
      "sion": 5373,
      "cord": 5374,
      "time": 5375,
      "sp": 5376,
      "inter": 5377,
      "urn": 5378,
      "ations": 5379,
      "would": 5380,
      "ship": 5381,
      "iz": 5382,
      "into": 5383,
      "him": 5384,
      "ick": 5385,
      "vel": 5386,
      "spe": 5387,
      "she": 5388,
      "no": 5389,
      "mber": 5390,
      "ates": 5391,
      "ict": 5392,
      "ie": 5393,
      "ased": 5394,
      "more": 5395,
      "ilm": 5396,
      "ited": 5397,
      "min": 5398,
      "ire": 5399,
      "old": 5400,
      "ty": 5401,
      "way": 5402,
      "Ar": 5403,
      "son": 5404,
      "amp": 5405,
      "ces": 5406,
      "most": 5407,
      "og": 5408,
      "new": 5409,
      "fore": 5410,
      "main": 5411,
      "Al": 5412,
      "bec": 5413,
      "ry": 5414,
      "any": 5415,
      "ten": 5416,
      "ret": 5417,
      "ase": 5418,
      "used": 5419,
      "ann": 5420,
      "ason": 5421,
      "fl": 5422,
      "ood": 5423,
      "includ": 5424,
      "cond": 5425,
      "cess": 5426,
      "cted": 5427,
      "ings": 5428,
      "ran": 5429,
      "ind": 5430,
      "ath": 5431,
      "vis": 5432,
      "les": 5433,
      "ors": 5434,
      "red": 5435,
      "day": 5436,
      "film": 5437,
      "when": 5438,
      "ted": 5439,
      "ton": 5440,
      "col": 5441,
      "rough": 5442,
      "ild": 5443,
      "comm": 5444,
      "ake": 5445,
      "ward": 5446,
      "Mar": 5447,
      "ob": 5448,
      "ck": 5449,
      "ican": 5450,
      "Au": 5451,
      "ens": 5452,
      "ts": 5453,
      "bu": 5454,
      "ra": 5455,
      "gan": 5456,
      "though": 5457,
      "sy": 5458,
      "reg": 5459,
      "ions": 5460,
      "Re": 5461,
      "een": 5462,
      "Wh": 5463,
      "De": 5464,
      "during": 5465,
      "than": 5466,
      "On": 5467,
      "so": 5468,
      "ose": 5469,
      "again": 5470,
      "gen": 5471,
      "game": 5472,
      "under": 5473,
      "ble": 5474,
      "ubl": 5475,
      "char": 5476,
      "nor": 5477,
      "produ": 5478,
      "199": 5479,
      "only": 5480,
      "ollow": 5481,
      "them": 5482,
      "about": 5483,
      "ide": 5484,
      "row": 5485,
      "can": 5486,
      "ents": 5487,
      "while": 5488,
      "New": 5489,
      "En": 5490,
      "ational": 5491,
      "some": 5492,
      "oy": 5493,
      "song": 5494,
      "rele": 5495,
      "later": 5496,
      "led": 5497,
      "ered": 5498,
      "outh": 5499,
      "ele": 5500,
      "tween": 5501,
      "between": 5502,
      "10": 5503,
      "sing": 5504,
      "ron": 5505,
      "ating": 5506,
      "coun": 5507,
      "three": 5508,
      "Af": 5509,
      "where": 5510,
      "num": 5511,
      "through": 5512,
      "kn": 5513,
      "aid": 5514,
      "As": 5515,
      "season": 5516,
      "ics": 5517,
      "ful": 5518,
      "view": 5519,
      "my": 5520,
      "lar": 5521,
      "cons": 5522,
      "Amer": 5523,
      "tain": 5524,
      "ern": 5525,
      "writ": 5526,
      "sub": 5527,
      "stru": 5528,
      "ied": 5529,
      "Le": 5530,
      "dr": 5531,
      "then": 5532,
      "rel": 5533,
      "ular": 5534,
      "iver": 5535,
      "000": 5536,
      "ters": 5537,
      "sel": 5538,
      "Jo": 5539,
      "high": 5540,
      "second": 5541,
      "med": 5542,
      "set": 5543,
      "made": 5544,
      "Com": 5545,
      "ef": 5546,
      "cur": 5547,
      "ames": 5548,
      "bum": 5549,
      "record": 5550,
      "four": 5551,
      "do": 5552,
      "go": 5553,
      "cap": 5554,
      "follow": 5555,
      "ock": 5556,
      "17": 5557,
      "ub": 5558,
      "spec": 5559,
      "call": 5560,
      "such": 5561,
      "car": 5562,
      "eng": 5563,
      "sur": 5564,
      "ished": 5565,
      "No": 5566,
      "atch": 5567,
      "back": 5568,
      "before": 5569,
      "there": 5570,
      "team": 5571,
      "well": 5572,
      "ma": 5573,
      "15": 5574,
      "iel": 5575,
      "mus": 5576,
      "cho": 5577,
      "ven": 5578,
      "inn": 5579,
      "years": 5580,
      "Sh": 5581,
      "appe": 5582,
      "Con": 5583,
      "add": 5584,
      "pol": 5585,
      "This": 5586,
      "Nor": 5587,
      "ros": 5588,
      "ident": 5589,
      "sup": 5590,
      "ific": 5591,
      "album": 5592,
      "publ": 5593,
      "reat": 5594,
      "ily": 5595,
      "owever": 5596,
      "je": 5597,
      "fer": 5598,
      "gu": 5599,
      "..": 5600,
      "tem": 5601,
      "ale": 5602,
      "ual": 5603,
      "ative": 5604,
      "unt": 5605,
      "many": 5606,
      "point": 5607,
      "being": 5608,
      "epis": 5609,
      "uary": 5610,
      "ond": 5611,
      "oup": 5612,
      "ek": 5613,
      "ode": 5614,
      "ince": 5615,
      "war": 5616,
      "velop": 5617,
      "At": 5618,
      "ins": 5619,
      "ury": 5620,
      "against": 5621,
      "number": 5622,
      "use": 5623,
      "ped": 5624,
      "Be": 5625,
      "side": 5626,
      "lead": 5627,
      "show": 5628,
      "ft": 5629,
      "charac": 5630,
      "After": 5631,
      "par": 5632,
      "16": 5633,
      "sever": 5634,
      "loc": 5635,
      "12": 5636,
      "mem": 5637,
      "ash": 5638,
      "long": 5639,
      "ause": 5640,
      "appear": 5641,
      "ious": 5642,
      "rece": 5643,
      "became": 5644,
      "Brit": 5645,
      "io": 5646,
      "including": 5647,
      "like": 5648,
      "cy": 5649,
      "hn": 5650,
      "United": 5651,
      "serv": 5652,
      "Se": 5653,
      "ese": 5654,
      "both": 5655,
      "cri": 5656,
      "ise": 5657,
      "series": 5658,
      "ost": 5659,
      "198": 5660,
      "found": 5661,
      "feat": 5662,
      "mi": 5663,
      "known": 5664,
      "line": 5665,
      "igin": 5666,
      "cover": 5667,
      "did": 5668,
      "194": 5669,
      "She": 5670,
      "rop": 5671,
      "ended": 5672,
      "eral": 5673,
      "az": 5674,
      "develop": 5675,
      "tri": 5676,
      "ley": 5677,
      "mill": 5678,
      "cer": 5679,
      "War": 5680,
      "contin": 5681,
      "ments": 5682,
      "ities": 5683,
      "ures": 5684,
      "30": 5685,
      "dire": 5686,
      "down": 5687,
      "Eng": 5688,
      "run": 5689,
      "suc": 5690,
      "pop": 5691,
      "head": 5692,
      "mar": 5693,
      "diff": 5694,
      "Wor": 5695,
      "For": 5696,
      "John": 5697,
      "road": 5698,
      "uch": 5699,
      "pass": 5700,
      "ird": 5701,
      "episode": 5702,
      "said": 5703,
      "leg": 5704,
      "por": 5705,
      "ouse": 5706,
      "west": 5707,
      "ress": 5708,
      "mis": 5709,
      "che": 5710,
      "could": 5711,
      "erson": 5712,
      "ah": 5713,
      "Ro": 5714,
      "several": 5715,
      "lin": 5716,
      "American": 5717,
      "peri": 5718,
      "orn": 5719,
      "ield": 5720,
      "vol": 5721,
      "vid": 5722,
      "14": 5723,
      "origin": 5724,
      "called": 5725,
      "197": 5726,
      "Gr": 5727,
      "II": 5728,
      "ised": 5729,
      "comple": 5730,
      "rest": 5731,
      "196": 5732,
      "Br": 5733,
      "ually": 5734,
      "sign": 5735,
      "stem": 5736,
      "music": 5737,
      "self": 5738,
      "bed": 5739,
      "cept": 5740,
      "remain": 5741,
      "return": 5742,
      "oper": 5743,
      "ste": 5744,
      "began": 5745,
      "Ger": 5746,
      "13": 5747,
      "design": 5748,
      "try": 5749,
      "ting": 5750,
      "ci": 5751,
      "ank": 5752,
      "ople": 5753,
      "men": 5754,
      "chool": 5755,
      "hel": 5756,
      "trans": 5757,
      "state": 5758,
      "dec": 5759,
      "aking": 5760,
      "early": 5761,
      "ball": 5762,
      "released": 5763,
      "near": 5764,
      "dist": 5765,
      "Tr": 5766,
      "hy": 5767,
      "Col": 5768,
      "US": 5769,
      "ived": 5770,
      "descri": 5771,
      "une": 5772,
      "ject": 5773,
      "until": 5774,
      "olog": 5775,
      "arr": 5776,
      "open": 5777,
      "success": 5778,
      "plac": 5779,
      "present": 5780,
      "sm": 5781,
      "hist": 5782,
      "fam": 5783,
      "ross": 5784,
      "arch": 5785,
      "gg": 5786,
      "May": 5787,
      "Cl": 5788,
      "ists": 5789,
      "band": 5790,
      "offic": 5791,
      "val": 5792,
      "crit": 5793,
      "less": 5794,
      "get": 5795,
      "overn": 5796,
      "50": 5797,
      "jor": 5798,
      "group": 5799,
      "gust": 5800,
      "may": 5801,
      "ism": 5802,
      "vent": 5803,
      "along": 5804,
      "ves": 5805,
      "nam": 5806,
      "bers": 5807,
      "ower": 5808,
      "mil": 5809,
      "tow": 5810,
      "million": 5811,
      "xt": 5812,
      "British": 5813,
      "bre": 5814,
      "cast": 5815,
      "order": 5816,
      "sim": 5817,
      "ving": 5818,
      "Sep": 5819,
      "enn": 5820,
      "met": 5821,
      "these": 5822,
      "ric": 5823,
      "come": 5824,
      "oci": 5825,
      "ather": 5826,
      "ized": 5827,
      "fect": 5828,
      "ord": 5829,
      "arm": 5830,
      "sk": 5831,
      "attack": 5832,
      "cut": 5833,
      "Sp": 5834,
      "cle": 5835,
      "Wil": 5836,
      "let": 5837,
      "tember": 5838,
      "national": 5839,
      "und": 5840,
      "stral": 5841,
      "September": 5842,
      "now": 5843,
      "World": 5844,
      "August": 5845,
      "ured": 5846,
      "Car": 5847,
      "stor": 5848,
      "Bl": 5849,
      "ib": 5850,
      "requ": 5851,
      "States": 5852,
      "Ju": 5853,
      "batt": 5854,
      "took": 5855,
      "continu": 5856,
      "large": 5857,
      "same": 5858,
      "people": 5859,
      "oot": 5860,
      "character": 5861,
      "grap": 5862,
      "var": 5863,
      "dep": 5864,
      "because": 5865,
      "vide": 5866,
      "11": 5867,
      "light": 5868,
      "position": 5869,
      "ca": 5870,
      "result": 5871,
      "ired": 5872,
      "around": 5873,
      "Ad": 5874,
      "Oc": 5875,
      "la": 5876,
      "Is": 5877,
      "start": 5878,
      "ctor": 5879,
      "class": 5880,
      "km": 5881,
      "aving": 5882,
      "king": 5883,
      "cour": 5884,
      "ivers": 5885,
      "Jan": 5886,
      "oth": 5887,
      "aim": 5888,
      "pon": 5889,
      "Austral": 5890,
      "mark": 5891,
      "formed": 5892,
      "vision": 5893,
      "support": 5894,
      "build": 5895,
      "ants": 5896,
      "week": 5897,
      "Pl": 5898,
      "tal": 5899,
      "following": 5900,
      "north": 5901,
      "rist": 5902,
      "life": 5903,
      "allow": 5904,
      "system": 5905,
      "six": 5906,
      "However": 5907,
      "ison": 5908,
      "aft": 5909,
      "track": 5910,
      "Pr": 5911,
      "Octo": 5912,
      "prom": 5913,
      "ork": 5914,
      "consid": 5915,
      "each": 5916,
      "ys": 5917,
      "received": 5918,
      "urch": 5919,
      "ime": 5920,
      "will": 5921,
      "ax": 5922,
      "October": 5923,
      "ained": 5924,
      "West": 5925,
      "ility": 5926,
      "ium": 5927,
      "place": 5928,
      "ling": 5929,
      "sol": 5930,
      "very": 5931,
      "govern": 5932,
      "ars": 5933,
      "thern": 5934,
      "liam": 5935,
      "five": 5936,
      "just": 5937,
      "stand": 5938,
      "area": 5939,
      "right": 5940,
      "wards": 5941,
      "century": 5942,
      "appro": 5943,
      "Sc": 5944,
      "They": 5945,
      "def": 5946,
      "By": 5947,
      "ina": 5948,
      "match": 5949,
      "partic": 5950,
      "ately": 5951,
      "ask": 5952,
      "ple": 5953,
      "North": 5954,
      "report": 5955,
      "city": 5956,
      "York": 5957,
      "world": 5958,
      "rote": 5959,
      "public": 5960,
      "book": 5961,
      "June": 5962,
      "top": 5963,
      "contro": 5964,
      "giv": 5965,
      "tle": 5966,
      "ger": 5967,
      "jo": 5968,
      "small": 5969,
      "major": 5970,
      "field": 5971,
      "cording": 5972,
      "King": 5973,
      "25": 5974,
      "ground": 5975,
      "July": 5976,
      "Can": 5977,
      "Man": 5978,
      "last": 5979,
      "Nove": 5980,
      "organ": 5981,
      "November": 5982,
      "played": 5983,
      "what": 5984,
      "ner": 5985,
      "atter": 5986,
      "turn": 5987,
      "town": 5988,
      "tit": 5989,
      "Fe": 5990,
      "person": 5991,
      "since": 5992,
      "ional": 5993,
      "lish": 5994,
      "single": 5995,
      "read": 5996,
      "gun": 5997,
      "Apr": 5998,
      "east": 5999,
      "March": 6000,
      "sequ": 6001,
      "April": 6002,
      "reach": 6003,
      "aged": 6004,
      "ude": 6005,
      "Mc": 6006,
      "ik": 6007,
      "Ac": 6008,
      "Co": 6009,
      "even": 6010,
      "care": 6011,
      "hal": 6012,
      "ural": 6013,
      "ster": 6014,
      "Eu": 6015,
      "Ge": 6016,
      "pri": 6017,
      "won": 6018,
      "name": 6019,
      "bro": 6020,
      "dom": 6021,
      "lit": 6022,
      "power": 6023,
      "idge": 6024,
      "differ": 6025,
      "0s": 6026,
      "Coun": 6027,
      "vious": 6028,
      "ague": 6029,
      "ica": 6030,
      "Indi": 6031,
      "ined": 6032,
      "test": 6033,
      "final": 6034,
      "ref": 6035,
      "left": 6036,
      "ru": 6037,
      "South": 6038,
      "ms": 6039,
      "ier": 6040,
      "Me": 6041,
      "due": 6042,
      "Ph": 6043,
      "udi": 6044,
      "gre": 6045,
      "south": 6046,
      "ages": 6047,
      "event": 6048,
      "version": 6049,
      "During": 6050,
      "list": 6051,
      "school": 6052,
      "Dece": 6053,
      "aff": 6054,
      "Ste": 6055,
      "avy": 6056,
      "December": 6057,
      "German": 6058,
      "Ed": 6059,
      "third": 6060,
      "water": 6061,
      "ilt": 6062,
      "ets": 6063,
      "incre": 6064,
      "month": 6065,
      "We": 6066,
      "ision": 6067,
      "moved": 6068,
      "much": 6069,
      "child": 6070,
      "ons": 6071,
      "expl": 6072,
      "another": 6073,
      "named": 6074,
      "January": 6075,
      "included": 6076,
      "195": 6077,
      "Or": 6078,
      "ians": 6079,
      "based": 6080,
      "issu": 6081,
      "All": 6082,
      "claim": 6083,
      "camp": 6084,
      "wrote": 6085,
      "ales": 6086,
      "193": 6087,
      "ships": 6088,
      "government": 6089,
      "ls": 6090,
      "24": 6091,
      "home": 6092,
      "Gu": 6093,
      "ane": 6094,
      "kill": 6095,
      "chan": 6096,
      "apan": 6097,
      "When": 6098,
      "Pe": 6099,
      "short": 6100,
      "story": 6101,
      "bert": 6102,
      "ially": 6103,
      "death": 6104,
      "app": 6105,
      "ute": 6106,
      "ically": 6107,
      "Pro": 6108,
      "ature": 6109,
      "ought": 6110,
      "Japan": 6111,
      "ody": 6112,
      "roy": 6113,
      "ext": 6114,
      "press": 6115,
      "using": 6116,
      "make": 6117,
      "tempt": 6118,
      "oss": 6119,
      "ital": 6120,
      "family": 6121,
      "review": 6122,
      "hand": 6123,
      "flu": 6124,
      "species": 6125,
      "house": 6126,
      "pect": 6127,
      "ution": 6128,
      "ney": 6129,
      "ement": 6130,
      "described": 6131,
      "ards": 6132,
      "rench": 6133,
      "fact": 6134,
      "dam": 6135,
      "previous": 6136,
      "...": 6137,
      "dest": 6138,
      "rown": 6139,
      "Bo": 6140,
      "Euro": 6141,
      "ene": 6142,
      "late": 6143,
      "forman": 6144,
      "beli": 6145,
      "thing": 6146,
      "real": 6147,
      "urther": 6148,
      "ler": 6149,
      "built": 6150,
      "cas": 6151,
      "gener": 6152,
      "ilar": 6153,
      "ness": 6154,
      "ified": 6155,
      "former": 6156,
      "mp": 6157,
      "best": 6158,
      "tak": 6159,
      "oute": 6160,
      "attempt": 6161,
      "placed": 6162,
      "games": 6163,
      "colle": 6164,
      "Mon": 6165,
      "tract": 6166,
      "polit": 6167,
      "ared": 6168,
      "held": 6169,
      "command": 6170,
      "Par": 6171,
      "ats": 6172,
      "put": 6173,
      "ety": 6174,
      "stud": 6175,
      "stit": 6176,
      "ford": 6177,
      "vo": 6178,
      "still": 6179,
      "His": 6180,
      "original": 6181,
      "gram": 6182,
      "those": 6183,
      "lim": 6184,
      "den": 6185,
      "constru": 6186,
      "addition": 6187,
      "augh": 6188,
      "Febr": 6189,
      "February": 6190,
      "gy": 6191,
      "fel": 6192,
      "next": 6193,
      "ently": 6194,
      "effect": 6195,
      "Christ": 6196,
      "ator": 6197,
      "22": 6198,
      "mid": 6199,
      "fall": 6200,
      "thor": 6201,
      "There": 6202,
      "fri": 6203,
      "performan": 6204,
      "100": 6205,
      "members": 6206,
      "ham": 6207,
      "sent": 6208,
      "rican": 6209,
      "ences": 6210,
      "ctions": 6211,
      "van": 6212,
      "Gen": 6213,
      "Li": 6214,
      "inc": 6215,
      "National": 6216,
      "ush": 6217,
      "mit": 6218,
      "Europe": 6219,
      "21": 6220,
      "bur": 6221,
      "iversity": 6222,
      "days": 6223,
      "period": 6224,
      "within": 6225,
      "ched": 6226,
      "ines": 6227,
      "French": 6228,
      "role": 6229,
      "na": 6230,
      "release": 6231,
      "ze": 6232,
      "init": 6233,
      "although": 6234,
      "move": 6235,
      "wind": 6236,
      "video": 6237,
      "hip": 6238,
      "say": 6239,
      "rank": 6240,
      "half": 6241,
      "2010": 6242,
      "23": 6243,
      "estab": 6244,
      "Her": 6245,
      "came": 6246,
      "Ser": 6247,
      "arri": 6248,
      "ps": 6249,
      "ink": 6250,
      "wom": 6251,
      "And": 6252,
      "William": 6253,
      "ropical": 6254,
      "continued": 6255,
      "law": 6256,
      "ali": 6257,
      "27": 6258,
      "craft": 6259,
      "aining": 6260,
      "ning": 6261,
      "ains": 6262,
      "ris": 6263,
      "hum": 6264,
      "uss": 6265,
      "round": 6266,
      "ones": 6267,
      "ulation": 6268,
      "ribut": 6269,
      "win": 6270,
      "sou": 6271,
      "posed": 6272,
      "however": 6273,
      "ending": 6274,
      "sen": 6275,
      "itary": 6276,
      "2008": 6277,
      "28": 6278,
      "fac": 6279,
      "inning": 6280,
      "ral": 6281,
      "2009": 6282,
      "Geor": 6283,
      "often": 6284,
      "uc": 6285,
      "you": 6286,
      "ried": 6287,
      "few": 6288,
      "rad": 6289,
      "ister": 6290,
      "imes": 6291,
      "equ": 6292,
      "mag": 6293,
      "Bar": 6294,
      "stri": 6295,
      "ampion": 6296,
      "take": 6297,
      "ix": 6298,
      "wood": 6299,
      "friend": 6300,
      "Des": 6301,
      "local": 6302,
      "Ear": 6303,
      "player": 6304,
      "2011": 6305,
      "Air": 6306,
      "similar": 6307,
      "26": 6308,
      "40": 6309,
      "among": 6310,
      "beg": 6311,
      "Inter": 6312,
      "production": 6313,
      "Mich": 6314,
      "ior": 6315,
      "ony": 6316,
      "force": 6317,
      "pite": 6318,
      "went": 6319,
      "different": 6320,
      "atic": 6321,
      "ove": 6322,
      "Char": 6323,
      "chang": 6324,
      "ery": 6325,
      "mission": 6326,
      "ides": 6327,
      "possi": 6328,
      "England": 6329,
      "storm": 6330,
      "One": 6331,
      "strong": 6332,
      "Mus": 6333,
      "further": 6334,
      "night": 6335,
      "Har": 6336,
      "post": 6337,
      "sty": 6338,
      "considered": 6339,
      "company": 6340,
      "Dav": 6341,
      "level": 6342,
      "served": 6343,
      "fire": 6344,
      "ices": 6345,
      "aver": 6346,
      "2007": 6347,
      "ided": 6348,
      "career": 6349,
      "uck": 6350,
      "ively": 6351,
      "ged": 6352,
      "provid": 6353,
      "City": 6354,
      "East": 6355,
      "having": 6356,
      "fort": 6357,
      "Park": 6358,
      "action": 6359,
      "ient": 6360,
      "commun": 6361,
      "exp": 6362,
      "trad": 6363,
      "fun": 6364,
      "tele": 6365,
      "English": 6366,
      "que": 6367,
      "ae": 6368,
      "fron": 6369,
      "enter": 6370,
      "ai": 6371,
      "ops": 6372,
      "Fr": 6373,
      "club": 6374,
      "every": 6375,
      "ives": 6376,
      "hold": 6377,
      "without": 6378,
      "history": 6379,
      "refer": 6380,
      "Although": 6381,
      "lands": 6382,
      "studi": 6383,
      "wide": 6384,
      "graph": 6385,
      "written": 6386,
      "Scot": 6387,
      "2012": 6388,
      "stead": 6389,
      "become": 6390,
      "board": 6391,
      "29": 6392,
      "reet": 6393,
      "respon": 6394,
      "Lond": 6395,
      "influ": 6396,
      "Ang": 6397,
      "London": 6398,
      "foot": 6399,
      "sound": 6400,
      "So": 6401,
      "Ex": 6402,
      "scor": 6403,
      "With": 6404,
      "ggest": 6405,
      "Mo": 6406,
      "iss": 6407,
      "River": 6408,
      "Batt": 6409,
      "invol": 6410,
      "suggest": 6411,
      "ington": 6412,
      "190": 6413,
      "bor": 6414,
      "tro": 6415,
      "given": 6416,
      "bus": 6417,
      "prof": 6418,
      "Ne": 6419,
      "announ": 6420,
      "divid": 6421,
      "oung": 6422,
      "mand": 6423,
      "key": 6424,
      "Te": 6425,
      "ds": 6426,
      "want": 6427,
      "Sy": 6428,
      "To": 6429,
      "cial": 6430,
      "cop": 6431,
      "comb": 6432,
      "ug": 6433,
      "building": 6434,
      "change": 6435,
      "High": 6436,
      "Canad": 6437,
      "imp": 6438,
      "iment": 6439,
      "father": 6440,
      "gave": 6441,
      "Fl": 6442,
      "successful": 6443,
      "common": 6444,
      "published": 6445,
      "close": 6446,
      "Pol": 6447,
      "University": 6448,
      "import": 6449,
      "stated": 6450,
      "seven": 6451,
      "sure": 6452,
      "good": 6453,
      "never": 6454,
      "While": 6455,
      "ailed": 6456,
      "returned": 6457,
      "fr": 6458,
      "anim": 6459,
      "beh": 6460,
      "omin": 6461,
      "produced": 6462,
      "total": 6463,
      "author": 6464,
      "face": 6465,
      "prote": 6466,
      "country": 6467,
      "del": 6468,
      "bar": 6469,
      "gn": 6470,
      "eved": 6471,
      "away": 6472,
      "see": 6473,
      "hour": 6474,
      "aren": 6475,
      "quad": 6476,
      "Cor": 6477,
      "sit": 6478,
      "popular": 6479,
      "tour": 6480,
      "omet": 6481,
      "ably": 6482,
      "aur": 6483,
      "reported": 6484,
      "Div": 6485,
      "ung": 6486,
      "dri": 6487,
      "lost": 6488,
      "2006": 6489,
      "program": 6490,
      "capt": 6491,
      "compos": 6492,
      "great": 6493,
      "aign": 6494,
      "ways": 6495,
      "chn": 6496,
      "vest": 6497,
      "particular": 6498,
      "draw": 6499,
      "ama": 6500,
      "making": 6501,
      "Dr": 6502,
      "rent": 6503,
      "ks": 6504,
      "vers": 6505,
      "include": 6506,
      "ened": 6507,
      "how": 6508,
      "According": 6509,
      "decl": 6510,
      "soci": 6511,
      "interest": 6512,
      "struct": 6513,
      "ology": 6514,
      "recorded": 6515,
      "indu": 6516,
      "covered": 6517,
      "ox": 6518,
      "fle": 6519,
      "forces": 6520,
      "need": 6521,
      "vict": 6522,
      "direct": 6523,
      "body": 6524,
      "urrican": 6525,
      "itions": 6526,
      "Am": 6527,
      "site": 6528,
      "Phil": 6529,
      "should": 6530,
      "plan": 6531,
      "voc": 6532,
      "ploy": 6533,
      "quar": 6534,
      "service": 6535,
      "ument": 6536,
      "suff": 6537,
      "moder": 6538,
      "performance": 6539,
      "died": 6540,
      "teen": 6541,
      "times": 6542,
      "grad": 6543,
      "These": 6544,
      "net": 6545,
      "ana": 6546,
      "coming": 6547,
      "fan": 6548,
      "rock": 6549,
      "pen": 6550,
      "ned": 6551,
      "Roy": 6552,
      "aircraft": 6553,
      "sum": 6554,
      "himself": 6555,
      "2013": 6556,
      "tell": 6557,
      "intro": 6558,
      "military": 6559,
      "flo": 6560,
      "pur": 6561,
      "iness": 6562,
      "Jack": 6563,
      "depend": 6564,
      "Australia": 6565,
      "room": 6566,
      "battle": 6567,
      "bas": 6568,
      "agre": 6569,
      "aul": 6570,
      "Pres": 6571,
      "songs": 6572,
      "aster": 6573,
      "elect": 6574,
      "Min": 6575,
      "member": 6576,
      "Rep": 6577,
      "cing": 6578,
      "itch": 6579,
      "gl": 6580,
      "critic": 6581,
      "General": 6582,
      "development": 6583,
      "BC": 6584,
      "State": 6585,
      "xim": 6586,
      "search": 6587,
      "front": 6588,
      "alth": 6589,
      "represent": 6590,
      "ael": 6591,
      "sw": 6592,
      "189": 6593,
      "ges": 6594,
      "itive": 6595,
      "look": 6596,
      "60": 6597,
      "acy": 6598,
      "akes": 6599,
      "sl": 6600,
      "histor": 6601,
      "James": 6602,
      "developed": 6603,
      "istr": 6604,
      "vir": 6605,
      "medi": 6606,
      "Rom": 6607,
      "control": 6608,
      "introdu": 6609,
      "destroy": 6610,
      "star": 6611,
      "nal": 6612,
      "children": 6613,
      "remained": 6614,
      "ption": 6615,
      "Gre": 6616,
      "range": 6617,
      "Su": 6618,
      "fav": 6619,
      "characters": 6620,
      "Army": 6621,
      "chart": 6622,
      "Sm": 6623,
      "title": 6624,
      "ored": 6625,
      "rew": 6626,
      "clear": 6627,
      "months": 6628,
      "mm": 6629,
      "ey": 6630,
      "ising": 6631,
      "ues": 6632,
      "ither": 6633,
      "rap": 6634,
      "ille": 6635,
      "ense": 6636,
      "campaign": 6637,
      "occur": 6638,
      "ability": 6639,
      "League": 6640,
      "cult": 6641,
      "urricane": 6642,
      "cir": 6643,
      "taken": 6644,
      "omb": 6645,
      "eight": 6646,
      "gether": 6647,
      "compet": 6648,
      "felt": 6649,
      "tropical": 6650,
      "ots": 6651,
      "signific": 6652,
      "writing": 6653,
      "across": 6654,
      "seen": 6655,
      "project": 6656,
      "tar": 6657,
      "Cap": 6658,
      "ering": 6659,
      "bridge": 6660,
      "station": 6661,
      "gest": 6662,
      "too": 6663,
      "pra": 6664,
      "created": 6665,
      "Tw": 6666,
      "America": 6667,
      "appeared": 6668,
      "announced": 6669,
      "noted": 6670,
      "Division": 6671,
      "alter": 6672,
      "Sw": 6673,
      "George": 6674,
      "reached": 6675,
      "Per": 6676,
      "appoint": 6677,
      "Hen": 6678,
      "cil": 6679,
      "hor": 6680,
      "experi": 6681,
      "activ": 6682,
      "gin": 6683,
      "County": 6684,
      "uses": 6685,
      "works": 6686,
      "Ma": 6687,
      "areas": 6688,
      "ov": 6689,
      "television": 6690,
      "fight": 6691,
      "2005": 6692,
      "Road": 6693,
      "Japanese": 6694,
      "saw": 6695,
      "lect": 6696,
      "prim": 6697,
      "cost": 6698,
      "performed": 6699,
      "ream": 6700,
      "various": 6701,
      "political": 6702,
      "break": 6703,
      "Street": 6704,
      "complete": 6705,
      "followed": 6706,
      "full": 6707,
      "iting": 6708,
      "ality": 6709,
      "har": 6710,
      "race": 6711,
      "players": 6712,
      "ago": 6713,
      "trave": 6714,
      "style": 6715,
      "2014": 6716,
      "mb": 6717,
      "inv": 6718,
      "mot": 6719,
      "arded": 6720,
      "abor": 6721,
      "black": 6722,
      "process": 6723,
      "mph": 6724,
      "mix": 6725,
      "non": 6726,
      "Mad": 6727,
      "antic": 6728,
      "wall": 6729,
      "oto": 6730,
      "points": 6731,
      "killed": 6732,
      "ief": 6733,
      "ization": 6734,
      "help": 6735,
      "hit": 6736,
      "bet": 6737,
      "bel": 6738,
      "crew": 6739,
      "lines": 6740,
      "live": 6741,
      "lished": 6742,
      "sess": 6743,
      "throughout": 6744,
      "sex": 6745,
      "techn": 6746,
      "stat": 6747,
      "together": 6748,
      "formation": 6749,
      "cru": 6750,
      "debut": 6751,
      "little": 6752,
      "El": 6753,
      "fem": 6754,
      "established": 6755,
      "tra": 6756,
      "significant": 6757,
      "meet": 6758,
      "broad": 6759,
      "Thom": 6760,
      "ull": 6761,
      "icult": 6762,
      "coast": 6763,
      "thought": 6764,
      "construction": 6765,
      "aval": 6766,
      "find": 6767,
      "Reg": 6768,
      "Qu": 6769,
      "pair": 6770,
      "miles": 6771,
      "earli": 6772,
      "does": 6773,
      "enced": 6774,
      "impro": 6775,
      "David": 6776,
      "born": 6777,
      "odes": 6778,
      "Michael": 6779,
      "got": 6780,
      "pain": 6781,
      "entire": 6782,
      "ission": 6783,
      "Australian": 6784,
      "rain": 6785,
      "stage": 6786,
      "ators": 6787,
      "young": 6788,
      "Rich": 6789,
      "San": 6790,
      "relation": 6791,
      "Med": 6792,
      "special": 6793,
      "women": 6794,
      "conom": 6795,
      "route": 6796,
      "decided": 6797,
      "conne": 6798,
      "Bill": 6799,
      "acc": 6800,
      "Part": 6801,
      "You": 6802,
      "case": 6803,
      "ible": 6804,
      "ances": 6805,
      "80": 6806,
      "ivil": 6807,
      "caused": 6808,
      "started": 6809,
      "general": 6810,
      "sell": 6811,
      "playing": 6812,
      "ho": 6813,
      "features": 6814,
      "white": 6815,
      "grow": 6816,
      "House": 6817,
      "Sch": 6818,
      "aves": 6819,
      "once": 6820,
      "eventually": 6821,
      "tee": 6822,
      "Fin": 6823,
      "ample": 6824,
      "isted": 6825,
      "manag": 6826,
      "pat": 6827,
      "host": 6828,
      "Lu": 6829,
      "sold": 6830,
      "stant": 6831,
      "feet": 6832,
      "ald": 6833,
      "Royal": 6834,
      "added": 6835,
      "opened": 6836,
      "modern": 6837,
      "located": 6838,
      "termin": 6839,
      "ring": 6840,
      "Hist": 6841,
      "itar": 6842,
      "idence": 6843,
      "My": 6844,
      "base": 6845,
      "ife": 6846,
      "inj": 6847,
      "quadron": 6848,
      "ampionship": 6849,
      "vari": 6850,
      "Some": 6851,
      "Po": 6852,
      "adv": 6853,
      "disc": 6854,
      "Ital": 6855,
      "instead": 6856,
      "ensive": 6857,
      "Don": 6858,
      "clos": 6859,
      "Mal": 6860,
      "Black": 6861,
      "peak": 6862,
      "hon": 6863,
      "Music": 6864,
      "cret": 6865,
      "important": 6866,
      "current": 6867,
      "section": 6868,
      "theast": 6869,
      "utes": 6870,
      "Ber": 6871,
      "Comp": 6872,
      "ata": 6873,
      "Bel": 6874,
      "cross": 6875,
      "ocial": 6876,
      "moun": 6877,
      "completed": 6878,
      "urb": 6879,
      "possible": 6880,
      "far": 6881,
      "ends": 6882,
      "ination": 6883,
      "worked": 6884,
      "oney": 6885,
      "els": 6886,
      "yn": 6887,
      "cogn": 6888,
      "ying": 6889,
      "others": 6890,
      "cause": 6891,
      "don": 6892,
      "free": 6893,
      "era": 6894,
      "population": 6895,
      "audi": 6896,
      "2004": 6897,
      "tre": 6898,
      "pred": 6899,
      "mater": 6900,
      "Hol": 6901,
      "fig": 6902,
      "pie": 6903,
      "lled": 6904,
      "leading": 6905,
      "typ": 6906,
      "quest": 6907,
      "31": 6908,
      "oted": 6909,
      "Ab": 6910,
      "loss": 6911,
      "rather": 6912,
      "church": 6913,
      "guns": 6914,
      "behind": 6915,
      "scri": 6916,
      "dle": 6917,
      "ches": 6918,
      "Robert": 6919,
      "upon": 6920,
      "ceed": 6921,
      "pract": 6922,
      "70": 6923,
      "forced": 6924,
      "lie": 6925,
      "comment": 6926,
      "lack": 6927,
      "mother": 6928,
      "invest": 6929,
      "alk": 6930,
      "Vi": 6931,
      "France": 6932,
      "amb": 6933,
      "fif": 6934,
      "Cent": 6935,
      "2015": 6936,
      "ino": 6937,
      "know": 6938,
      "ays": 6939,
      "vill": 6940,
      "heavy": 6941,
      "NA": 6942,
      "ming": 6943,
      "Act": 6944,
      "ecut": 6945,
      "party": 6946,
      "School": 6947,
      "Cr": 6948,
      "respect": 6949,
      "novel": 6950,
      "subsequ": 6951,
      "Russ": 6952,
      "proble": 6953,
      "35": 6954,
      "reve": 6955,
      "accept": 6956,
      "difficult": 6957,
      "Wash": 6958,
      "human": 6959,
      "working": 6960,
      "hard": 6961,
      "separ": 6962,
      "associ": 6963,
      "joined": 6964,
      "weeks": 6965,
      "term": 6966,
      "Ham": 6967,
      "Henry": 6968,
      "coll": 6969,
      "scene": 6970,
      "originally": 6971,
      "avail": 6972,
      "Ale": 6973,
      "Em": 6974,
      "asing": 6975,
      "ories": 6976,
      "angu": 6977,
      "pression": 6978,
      "scored": 6979,
      "almost": 6980,
      "inst": 6981,
      "gar": 6982,
      "188": 6983,
      "damage": 6984,
      "ties": 6985,
      "spir": 6986,
      "Battle": 6987,
      "mass": 6988,
      "allowed": 6989,
      "fourth": 6990,
      "ival": 6991,
      "Best": 6992,
      "Spe": 6993,
      "ament": 6994,
      "ids": 6995,
      "Red": 6996,
      "igned": 6997,
      "approach": 6998,
      "ready": 6999,
      "provided": 7000,
      "Vir": 7001,
      "engine": 7002,
      "Fir": 7003,
      "goal": 7004,
      "drop": 7005,
      "lower": 7006,
      "ope": 7007,
      "Mil": 7008,
      "Port": 7009,
      "claimed": 7010,
      "super": 7011,
      "TV": 7012,
      "cup": 7013,
      "Mor": 7014,
      "wanted": 7015,
      "Dan": 7016,
      "regular": 7017,
      "Paul": 7018,
      "employ": 7019,
      "500": 7020,
      "cell": 7021,
      "Mac": 7022,
      "brought": 7023,
      "Que": 7024,
      "nat": 7025,
      "tradition": 7026,
      "ula": 7027,
      "Cour": 7028,
      "compan": 7029,
      "Fran": 7030,
      "individ": 7031,
      "bal": 7032,
      "aps": 7033,
      "featured": 7034,
      "President": 7035,
      "least": 7036,
      "Gl": 7037,
      "wife": 7038,
      "laun": 7039,
      "hest": 7040,
      "econom": 7041,
      "average": 7042,
      "soon": 7043,
      "passed": 7044,
      "business": 7045,
      "cred": 7046,
      "towards": 7047,
      "region": 7048,
      "runs": 7049,
      "tempor": 7050,
      "reek": 7051,
      "aut": 7052,
      "Washington": 7053,
      "recogn": 7054,
      "Play": 7055,
      "court": 7056,
      "critics": 7057,
      "azine": 7058,
      "western": 7059,
      "cts": 7060,
      "redu": 7061,
      "186": 7062,
      "quick": 7063,
      "counter": 7064,
      "estim": 7065,
      "office": 7066,
      "either": 7067,
      "contract": 7068,
      "profess": 7069,
      "Res": 7070,
      "sour": 7071,
      "forms": 7072,
      "plann": 7073,
      "defe": 7074,
      "emy": 7075,
      "rail": 7076,
      "uel": 7077,
      "leng": 7078,
      "example": 7079,
      "Angel": 7080,
      "nomin": 7081,
      "nia": 7082,
      "Other": 7083,
      "icated": 7084,
      "foc": 7085,
      "mult": 7086,
      "troops": 7087,
      "dou": 7088,
      "rid": 7089,
      "Je": 7090,
      "finished": 7091,
      "ades": 7092,
      "ico": 7093,
      "army": 7094,
      "scre": 7095,
      "hom": 7096,
      "asy": 7097,
      "uk": 7098,
      "2003": 7099,
      "Despite": 7100,
      "rul": 7101,
      "concl": 7102,
      "mun": 7103,
      "mal": 7104,
      "shot": 7105,
      "Follow": 7106,
      "Game": 7107,
      "circ": 7108,
      "unk": 7109,
      "generally": 7110,
      "ials": 7111,
      "ills": 7112,
      "proper": 7113,
      "condu": 7114,
      "whe": 7115,
      "fre": 7116,
      "ha": 7117,
      "det": 7118,
      "aper": 7119,
      "anti": 7120,
      "bes": 7121,
      "ply": 7122,
      "osp": 7123,
      "cycl": 7124,
      "sea": 7125,
      "Colle": 7126,
      "fed": 7127,
      "compl": 7128,
      "length": 7129,
      "events": 7130,
      "cert": 7131,
      "believed": 7132,
      "Cup": 7133,
      "keep": 7134,
      "Star": 7135,
      "First": 7136,
      "particip": 7137,
      "aled": 7138,
      "Following": 7139,
      "parts": 7140,
      "Mary": 7141,
      "tic": 7142,
      "fund": 7143,
      "scen": 7144,
      "ping": 7145,
      "ius": 7146,
      "ention": 7147,
      "victory": 7148,
      "replaced": 7149,
      "cially": 7150,
      "bound": 7151,
      "nine": 7152,
      "45": 7153,
      "tor": 7154,
      "designed": 7155,
      "iction": 7156,
      "available": 7157,
      "island": 7158,
      "Dep": 7159,
      "75": 7160,
      "ological": 7161,
      "official": 7162,
      "itor": 7163,
      "Lou": 7164,
      "sele": 7165,
      "hours": 7166,
      "evol": 7167,
      "European": 7168,
      "conc": 7169,
      "involved": 7170,
      "president": 7171,
      "Two": 7172,
      "hab": 7173,
      "ta": 7174,
      "opening": 7175,
      "Mer": 7176,
      "prison": 7177,
      "Sun": 7178,
      "stop": 7179,
      "ential": 7180,
      "ports": 7181,
      "bri": 7182,
      "asked": 7183,
      "hous": 7184,
      "tel": 7185,
      "certain": 7186,
      "istic": 7187,
      "turned": 7188,
      "stone": 7189,
      "execut": 7190,
      "comes": 7191,
      "cal": 7192,
      "erous": 7193,
      "exist": 7194,
      "director": 7195,
      "Roman": 7196,
      "ville": 7197,
      "saying": 7198,
      "threat": 7199,
      "2000": 7200,
      "nd": 7201,
      "commit": 7202,
      "appearance": 7203,
      "park": 7204,
      "love": 7205,
      "ighest": 7206,
      "watch": 7207,
      "Mid": 7208,
      "minutes": 7209,
      "writer": 7210,
      "largest": 7211,
      "ount": 7212,
      "highway": 7213,
      "sil": 7214,
      "southern": 7215,
      "Route": 7216,
      "Scott": 7217,
      "taking": 7218,
      "mir": 7219,
      "commer": 7220,
      "ishing": 7221,
      "ize": 7222,
      "ublic": 7223,
      "going": 7224,
      "survi": 7225,
      "highest": 7226,
      "From": 7227,
      "2001": 7228,
      "earlier": 7229,
      "Atl": 7230,
      "Sing": 7231,
      "initially": 7232,
      "Do": 7233,
      "percent": 7234,
      "vice": 7235,
      "particularly": 7236,
      "training": 7237,
      "White": 7238,
      "ership": 7239,
      "Val": 7240,
      "bit": 7241,
      "lear": 7242,
      "Mag": 7243,
      "Mart": 7244,
      "lying": 7245,
      "90": 7246,
      "graphy": 7247,
      "educ": 7248,
      "box": 7249,
      "must": 7250,
      "Church": 7251,
      "assist": 7252,
      "ordered": 7253,
      "pot": 7254,
      "issue": 7255,
      "Charles": 7256,
      "Kingdom": 7257,
      "Navy": 7258,
      "signed": 7259,
      "hib": 7260,
      "thus": 7261,
      "ateg": 7262,
      "za": 7263,
      "pond": 7264,
      "pers": 7265,
      "Off": 7266,
      "Hall": 7267,
      "Thomas": 7268,
      "weak": 7269,
      "social": 7270,
      "central": 7271,
      "tries": 7272,
      "uture": 7273,
      "aj": 7274,
      "ency": 7275,
      "ape": 7276,
      "speed": 7277,
      "maintain": 7278,
      "studio": 7279,
      "praised": 7280,
      "bow": 7281,
      "pected": 7282,
      "Dis": 7283,
      "alifor": 7284,
      "International": 7285,
      "bill": 7286,
      "ification": 7287,
      "Smith": 7288,
      "But": 7289,
      "date": 7290,
      "langu": 7291,
      "gress": 7292,
      "ception": 7293,
      "reason": 7294,
      "Virgin": 7295,
      "Cam": 7296,
      "increased": 7297,
      "deal": 7298,
      "AA": 7299,
      "northern": 7300,
      "hurricane": 7301,
      "past": 7302,
      "units": 7303,
      "research": 7304,
      "Pal": 7305,
      "2002": 7306,
      "vin": 7307,
      "relig": 7308,
      "Bay": 7309,
      "rac": 7310,
      "type": 7311,
      "stry": 7312,
      "depart": 7313,
      "via": 7314,
      "meas": 7315,
      "Canada": 7316,
      "pay": 7317,
      "agon": 7318,
      "deli": 7319,
      "Bur": 7320,
      "Califor": 7321,
      "commission": 7322,
      "rian": 7323,
      "Du": 7324,
      "Pri": 7325,
      "Sam": 7326,
      "hol": 7327,
      "Rock": 7328,
      "Bro": 7329,
      "mean": 7330,
      "Ho": 7331,
      "immedi": 7332,
      "omer": 7333,
      "ayed": 7334,
      "daugh": 7335,
      "acqu": 7336,
      "ilities": 7337,
      "relationship": 7338,
      "imin": 7339,
      "fantry": 7340,
      "Peter": 7341,
      "Richard": 7342,
      "pressed": 7343,
      "Sen": 7344,
      "Mi": 7345,
      "bomb": 7346,
      "independ": 7347,
      "Alex": 7348,
      "Ben": 7349,
      "usually": 7350,
      "told": 7351,
      "better": 7352,
      "Indian": 7353,
      "California": 7354,
      "Sal": 7355,
      "nel": 7356,
      "icket": 7357,
      "sat": 7358,
      "Sk": 7359,
      "enough": 7360,
      "states": 7361,
      "winds": 7362,
      "Union": 7363,
      "aring": 7364,
      "sed": 7365,
      "rup": 7366,
      "positive": 7367,
      "jour": 7368,
      "God": 7369,
      "Court": 7370,
      "Brown": 7371,
      "sal": 7372,
      "Island": 7373,
      "concern": 7374,
      "ston": 7375,
      "spent": 7376,
      "phys": 7377,
      "ume": 7378,
      "according": 7379,
      "ference": 7380,
      "appointed": 7381,
      "Tom": 7382,
      "above": 7383,
      "arily": 7384,
      "films": 7385,
      "feel": 7386,
      "Ap": 7387,
      "tion": 7388,
      "outside": 7389,
      "Great": 7390,
      "Cong": 7391,
      "icle": 7392,
      "accoun": 7393,
      "football": 7394,
      "bird": 7395,
      "anks": 7396,
      "Str": 7397,
      "Award": 7398,
      "ener": 7399,
      "quare": 7400,
      "lay": 7401,
      "previously": 7402,
      "recording": 7403,
      "active": 7404,
      "responsi": 7405,
      "standing": 7406,
      "Associ": 7407,
      "mur": 7408,
      "contribut": 7409,
      "load": 7410,
      "usion": 7411,
      "defin": 7412,
      "access": 7413,
      "failed": 7414,
      "sey": 7415,
      "Company": 7416,
      "required": 7417,
      "elements": 7418,
      "reng": 7419,
      "ems": 7420,
      "occup": 7421,
      "187": 7422,
      "NY": 7423,
      "ken": 7424,
      "Ter": 7425,
      "treat": 7426,
      "overnor": 7427,
      "atin": 7428,
      "gir": 7429,
      "India": 7430,
      "Vict": 7431,
      "Germany": 7432,
      "reviews": 7433,
      "viol": 7434,
      "ga": 7435,
      "directed": 7436,
      "Sou": 7437,
      "Mark": 7438,
      "ida": 7439,
      "interview": 7440,
      "alion": 7441,
      "word": 7442,
      "ique": 7443,
      "ometimes": 7444,
      "III": 7445,
      "Christian": 7446,
      "itself": 7447,
      "give": 7448,
      "vert": 7449,
      "groups": 7450,
      "reme": 7451,
      "aters": 7452,
      "inner": 7453,
      "score": 7454,
      "despite": 7455,
      "respond": 7456,
      "bour": 7457,
      "thod": 7458,
      "Frank": 7459,
      "Times": 7460,
      "Sim": 7461,
      "prob": 7462,
      "UK": 7463,
      "La": 7464,
      "ns": 7465,
      "onto": 7466,
      "Ke": 7467,
      "perform": 7468,
      "Cast": 7469,
      "idea": 7470,
      "space": 7471,
      "beginning": 7472,
      "bi": 7473,
      "introduced": 7474,
      "ministr": 7475,
      "College": 7476,
      "script": 7477,
      "soldi": 7478,
      "happ": 7479,
      "frequ": 7480,
      "streng": 7481,
      "ept": 7482,
      "flight": 7483,
      "whose": 7484,
      "ication": 7485,
      "sus": 7486,
      "priv": 7487,
      "Jer": 7488,
      "igan": 7489,
      "block": 7490,
      "transfer": 7491,
      "anal": 7492,
      "ening": 7493,
      "Tri": 7494,
      "Gold": 7495,
      "Western": 7496,
      "league": 7497,
      "tom": 7498,
      "Mex": 7499,
      "edy": 7500,
      "cul": 7501,
      "ara": 7502,
      "ases": 7503,
      "prevent": 7504,
      "brother": 7505,
      "ault": 7506,
      "changes": 7507,
      "recent": 7508,
      "Sovi": 7509,
      "pil": 7510,
      "gold": 7511,
      "Hill": 7512,
      "conf": 7513,
      "sch": 7514,
      "election": 7515,
      "Pre": 7516,
      "defeated": 7517,
      "Bu": 7518,
      "additional": 7519,
      "Grand": 7520,
      "jud": 7521,
      "appl": 7522,
      "future": 7523,
      "berg": 7524,
      "whom": 7525,
      "poor": 7526,
      "international": 7527,
      "photo": 7528,
      "Met": 7529,
      "Span": 7530,
      "Awards": 7531,
      "native": 7532,
      "exten": 7533,
      "structure": 7534,
      "corpor": 7535,
      "evidence": 7536,
      "changed": 7537,
      "sem": 7538,
      "argu": 7539,
      "33": 7540,
      "quickly": 7541,
      "center": 7542,
      "market": 7543,
      "specific": 7544,
      "Force": 7545,
      "radio": 7546,
      "already": 7547,
      "ben": 7548,
      "umb": 7549,
      "That": 7550,
      "Day": 7551,
      "situ": 7552,
      "atory": 7553,
      "material": 7554,
      "aint": 7555,
      "river": 7556,
      "Most": 7557,
      "coach": 7558,
      "emp": 7559,
      "pet": 7560,
      "dies": 7561,
      "ctive": 7562,
      "agreed": 7563,
      "arrived": 7564,
      "civil": 7565,
      "itz": 7566,
      "lies": 7567,
      "study": 7568,
      "staff": 7569,
      "Britain": 7570,
      "Mill": 7571,
      "likely": 7572,
      "slow": 7573,
      "useum": 7574,
      "decision": 7575,
      "lyr": 7576,
      "Film": 7577,
      "course": 7578,
      "subject": 7579,
      "hop": 7580,
      "spr": 7581,
      "money": 7582,
      "female": 7583,
      "ded": 7584,
      "Chin": 7585,
      "might": 7586,
      "sometimes": 7587,
      "espe": 7588,
      "limited": 7589,
      "surface": 7590,
      "fleet": 7591,
      "pan": 7592,
      "response": 7593,
      "food": 7594,
      "names": 7595,
      "icted": 7596,
      "magazine": 7597,
      "actions": 7598,
      "especially": 7599,
      "Pac": 7600,
      "nation": 7601,
      "flow": 7602,
      "36": 7603,
      "Later": 7604,
      "Di": 7605,
      "liament": 7606,
      "Victor": 7607,
      "estimated": 7608,
      "broadcast": 7609,
      "flood": 7610,
      "Championship": 7611,
      "carried": 7612,
      "bell": 7613,
      "Over": 7614,
      "consider": 7615,
      "ples": 7616,
      "worth": 7617,
      "Pat": 7618,
      "shows": 7619,
      "ror": 7620,
      "paren": 7621,
      "ena": 7622,
      "community": 7623,
      "guitar": 7624,
      "uded": 7625,
      "bot": 7626,
      "listed": 7627,
      "rate": 7628,
      "musical": 7629,
      "prepar": 7630,
      "text": 7631,
      "plant": 7632,
      "ises": 7633,
      "size": 7634,
      "scenes": 7635,
      "1999": 7636,
      "arrison": 7637,
      "related": 7638,
      "remaining": 7639,
      "37": 7640,
      "eastern": 7641,
      "isl": 7642,
      "minor": 7643,
      "yl": 7644,
      "Los": 7645,
      "emer": 7646,
      "venue": 7647,
      "personal": 7648,
      "natural": 7649,
      "becoming": 7650,
      "Early": 7651,
      "Virginia": 7652,
      "larger": 7653,
      "division": 7654,
      "media": 7655,
      "latter": 7656,
      "entered": 7657,
      "object": 7658,
      "favor": 7659,
      "yard": 7660,
      "rights": 7661,
      "suit": 7662,
      "doc": 7663,
      "police": 7664,
      "summer": 7665,
      "married": 7666,
      "suggested": 7667,
      "pressure": 7668,
      "approxim": 7669,
      "teams": 7670,
      "brief": 7671,
      "liter": 7672,
      "arrang": 7673,
      "Just": 7674,
      "burg": 7675,
      "adap": 7676,
      "iter": 7677,
      "mor": 7678,
      "Year": 7679,
      "ari": 7680,
      "daughter": 7681,
      "tax": 7682,
      "investig": 7683,
      "exper": 7684,
      "establish": 7685,
      "Jackson": 7686,
      "surround": 7687,
      "students": 7688,
      "kil": 7689,
      "Second": 7690,
      "temporary": 7691,
      "effects": 7692,
      "Chic": 7693,
      "Tex": 7694,
      "tons": 7695,
      "woman": 7696,
      "38": 7697,
      "prior": 7698,
      "episodes": 7699,
      "Ty": 7700,
      "If": 7701,
      "Flor": 7702,
      "Fle": 7703,
      "fit": 7704,
      "Cal": 7705,
      "Tour": 7706,
      "clim": 7707,
      "Oly": 7708,
      "Louis": 7709,
      "sett": 7710,
      "irth": 7711,
      "avo": 7712,
      "winning": 7713,
      "49": 7714,
      "32": 7715,
      "mode": 7716,
      "Green": 7717,
      "leaving": 7718,
      "Olymp": 7719,
      "destroyed": 7720,
      "ny": 7721,
      "viron": 7722,
      "selves": 7723,
      "tracks": 7724,
      "sons": 7725,
      "Lord": 7726,
      "join": 7727,
      "equip": 7728,
      "fail": 7729,
      "vie": 7730,
      "Club": 7731,
      "Spanish": 7732,
      "Aust": 7733,
      "Che": 7734,
      "reli": 7735,
      "mocr": 7736,
      "provide": 7737,
      "ander": 7738,
      "create": 7739,
      "relative": 7740,
      "igade": 7741,
      "territ": 7742,
      "polic": 7743,
      "aries": 7744,
      "idents": 7745,
      "qual": 7746,
      "spo": 7747,
      "proposed": 7748,
      "big": 7749,
      "intended": 7750,
      "influence": 7751,
      "Party": 7752,
      "overall": 7753,
      "verse": 7754,
      "captured": 7755,
      "Soviet": 7756,
      "burn": 7757,
      "ili": 7758,
      "moving": 7759,
      "Rob": 7760,
      "distr": 7761,
      "occas": 7762,
      "fully": 7763,
      "running": 7764,
      "Super": 7765,
      "artment": 7766,
      "supported": 7767,
      "Im": 7768,
      "lot": 7769,
      "ato": 7770,
      "Association": 7771,
      "thers": 7772,
      "escap": 7773,
      "quarter": 7774,
      "Del": 7775,
      "abs": 7776,
      "purch": 7777,
      "fell": 7778,
      "han": 7779,
      "Chicago": 7780,
      "expected": 7781,
      "mach": 7782,
      "ba": 7783,
      "ires": 7784,
      "nearly": 7785,
      "Many": 7786,
      "Love": 7787,
      "pread": 7788,
      "forward": 7789,
      "Lo": 7790,
      "syn": 7791,
      "helped": 7792,
      "movement": 7793,
      "1998": 7794,
      "stra": 7795,
      "Chinese": 7796,
      "awarded": 7797,
      "nu": 7798,
      "Song": 7799,
      "mixed": 7800,
      "bring": 7801,
      "commercial": 7802,
      "bey": 7803,
      "secut": 7804,
      "marked": 7805,
      "Council": 7806,
      "closed": 7807,
      "dy": 7808,
      "issued": 7809,
      "Oper": 7810,
      "experience": 7811,
      "consist": 7812,
      "185": 7813,
      "cit": 7814,
      "stars": 7815,
      "Record": 7816,
      "fish": 7817,
      "Go": 7818,
      "Edward": 7819,
      "dark": 7820,
      "phen": 7821,
      "Enter": 7822,
      "Ze": 7823,
      "planned": 7824,
      "dead": 7825,
      "breed": 7826,
      "34": 7827,
      "300": 7828,
      "hood": 7829,
      "done": 7830,
      "pow": 7831,
      "bility": 7832,
      "joy": 7833,
      "legal": 7834,
      "wing": 7835,
      "iple": 7836,
      "fans": 7837,
      "longer": 7838,
      "operation": 7839,
      "language": 7840,
      "attract": 7841,
      "higher": 7842,
      "bon": 7843,
      "Hu": 7844,
      "compared": 7845,
      "dig": 7846,
      "increasing": 7847,
      "leader": 7848,
      "lor": 7849,
      "cele": 7850,
      "bad": 7851,
      "deep": 7852,
      "olk": 7853,
      "Johnson": 7854,
      "touch": 7855,
      "Bal": 7856,
      "living": 7857,
      "approximately": 7858,
      "ience": 7859,
      "print": 7860,
      "feature": 7861,
      "temper": 7862,
      "fifth": 7863,
      "Back": 7864,
      "themselves": 7865,
      "Ir": 7866,
      "Art": 7867,
      "Kore": 7868,
      "History": 7869,
      "1st": 7870,
      "producer": 7871,
      "screen": 7872,
      "bury": 7873,
      "icles": 7874,
      "mostly": 7875,
      "48": 7876,
      "Pacific": 7877,
      "intens": 7878,
      "ams": 7879,
      "rica": 7880,
      "cu": 7881,
      "Billboard": 7882,
      "wa": 7883,
      "think": 7884,
      "operations": 7885,
      "Cro": 7886,
      "remains": 7887,
      "finan": 7888,
      "defeat": 7889,
      "orial": 7890,
      "chall": 7891,
      "appears": 7892,
      "mitted": 7893,
      "weap": 7894,
      "Mur": 7895,
      "buildings": 7896,
      "aught": 7897,
      "whether": 7898,
      "Under": 7899,
      "ender": 7900,
      "ked": 7901,
      "MS": 7902,
      "plot": 7903,
      "extended": 7904,
      "copies": 7905,
      "probably": 7906,
      "soldiers": 7907,
      "spired": 7908,
      "weight": 7909,
      "Arch": 7910,
      "voice": 7911,
      "Queen": 7912,
      "stream": 7913,
      "pose": 7914,
      "heav": 7915,
      "Squadron": 7916,
      "1997": 7917,
      "Since": 7918,
      "complex": 7919,
      "Tor": 7920,
      "roll": 7921,
      "portr": 7922,
      "Atlantic": 7923,
      "lyrics": 7924,
      "FA": 7925,
      "deb": 7926,
      "affe": 7927,
      "igr": 7928,
      "shoot": 7929,
      "fill": 7930,
      "jected": 7931,
      "transport": 7932,
      "battles": 7933,
      "really": 7934,
      "countries": 7935,
      "riage": 7936,
      "ban": 7937,
      "Test": 7938,
      "ospital": 7939,
      "ert": 7940,
      "boy": 7941,
      "39": 7942,
      "cm": 7943,
      "los": 7944,
      "suffered": 7945,
      "Law": 7946,
      "Lake": 7947,
      "andon": 7948,
      "Rad": 7949,
      "goals": 7950,
      "Sever": 7951,
      "Florida": 7952,
      "Tur": 7953,
      "demand": 7954,
      "cting": 7955,
      "includes": 7956,
      "Big": 7957,
      "health": 7958,
      "issues": 7959,
      "immediately": 7960,
      "rich": 7961,
      "capital": 7962,
      "Both": 7963,
      "cis": 7964,
      "47": 7965,
      "Sea": 7966,
      "manager": 7967,
      "private": 7968,
      "visit": 7969,
      "request": 7970,
      "Bet": 7971,
      "Jim": 7972,
      "Leg": 7973,
      "amed": 7974,
      "Jew": 7975,
      "officers": 7976,
      "colon": 7977,
      "Ot": 7978,
      "Mat": 7979,
      "flag": 7980,
      "target": 7981,
      "leave": 7982,
      "Fort": 7983,
      "bs": 7984,
      "ultim": 7985,
      "mat": 7986,
      "location": 7987,
      "gas": 7988,
      "aging": 7989,
      "mic": 7990,
      "Trans": 7991,
      "Station": 7992,
      "rat": 7993,
      "expand": 7994,
      "removed": 7995,
      "ado": 7996,
      "Texas": 7997,
      "flict": 7998,
      "increase": 7999,
      "yards": 8000,
      "fast": 8001,
      "birth": 8002,
      "Mr": 8003,
      "portion": 8004,
      "subsequently": 8005,
      "Old": 8006,
      "rd": 8007,
      "status": 8008,
      "plans": 8009,
      "Town": 8010,
      "ging": 8011,
      "always": 8012,
      "offered": 8013,
      "confir": 8014,
      "services": 8015,
      "Studi": 8016,
      "upper": 8017,
      "China": 8018,
      "Another": 8019,
      "Sci": 8020,
      "ously": 8021,
      "vey": 8022,
      "evolution": 8023,
      "How": 8024,
      "aker": 8025,
      "shire": 8026,
      "Mel": 8027,
      "problems": 8028,
      "attacks": 8029,
      "instr": 8030,
      "iser": 8031,
      "Earth": 8032,
      "demon": 8033,
      "mas": 8034,
      "tainment": 8035,
      "twent": 8036,
      "habit": 8037,
      "reser": 8038,
      "phy": 8039,
      "stitut": 8040,
      "forts": 8041,
      "terms": 8042,
      "aily": 8043,
      "something": 8044,
      "professional": 8045,
      "castle": 8046,
      "Pan": 8047,
      "carry": 8048,
      "administr": 8049,
      "village": 8050,
      "Boy": 8051,
      "takes": 8052,
      "mel": 8053,
      "contr": 8054,
      "Bra": 8055,
      "Rail": 8056,
      "majority": 8057,
      "iles": 8058,
      "Wood": 8059,
      "orning": 8060,
      "discover": 8061,
      "Emp": 8062,
      "discovered": 8063,
      "neg": 8064,
      "vironment": 8065,
      "Bow": 8066,
      "mouth": 8067,
      "makes": 8068,
      "Canadian": 8069,
      "job": 8070,
      "ranked": 8071,
      "concept": 8072,
      "composed": 8073,
      "beat": 8074,
      "cean": 8075,
      "Center": 8076,
      "assigned": 8077,
      "minute": 8078,
      "Africa": 8079,
      "oph": 8080,
      "elected": 8081,
      "adop": 8082,
      "otion": 8083,
      "uries": 8084,
      "damaged": 8085,
      "initial": 8086,
      "adium": 8087,
      "meeting": 8088,
      "ider": 8089,
      "zz": 8090,
      "chester": 8091,
      "Its": 8092,
      "olic": 8093,
      "RA": 8094,
      "nes": 8095,
      "DV": 8096,
      "ka": 8097,
      "onna": 8098,
      "ulated": 8099,
      "Van": 8100,
      "revealed": 8101,
      "individual": 8102,
      "ti": 8103,
      "Highway": 8104,
      "inspired": 8105,
      "Sir": 8106,
      "giving": 8107,
      "raised": 8108,
      "atives": 8109,
      "Russian": 8110,
      "46": 8111,
      "itect": 8112,
      "lived": 8113,
      "mist": 8114,
      "yet": 8115,
      "plays": 8116,
      "Carol": 8117,
      "Hal": 8118,
      "Hot": 8119,
      "necess": 8120,
      "ails": 8121,
      "heart": 8122,
      "inent": 8123,
      "Martin": 8124,
      "respectively": 8125,
      "associated": 8126,
      "grand": 8127,
      "uter": 8128,
      "Kent": 8129,
      "attacked": 8130,
      "actor": 8131,
      "Central": 8132,
      "numerous": 8133,
      "1995": 8134,
      "needed": 8135,
      "anch": 8136,
      "cers": 8137,
      "rout": 8138,
      "Angeles": 8139,
      "stitute": 8140,
      "Ver": 8141,
      "cand": 8142,
      "veh": 8143,
      "nature": 8144,
      "ulf": 8145,
      "Francis": 8146,
      "scient": 8147,
      "friends": 8148,
      "Cle": 8149,
      "pool": 8150,
      "distribut": 8151,
      "impact": 8152,
      "launched": 8153,
      "stitution": 8154,
      "constructed": 8155,
      "domin": 8156,
      "Cy": 8157,
      "conditions": 8158,
      "books": 8159,
      "occurred": 8160,
      "step": 8161,
      "information": 8162,
      "contains": 8163,
      "sales": 8164,
      "estival": 8165,
      "shown": 8166,
      "ech": 8167,
      "Congress": 8168,
      "attempted": 8169,
      "uals": 8170,
      "uments": 8171,
      "tur": 8172,
      "2nd": 8173,
      "exam": 8174,
      "Bob": 8175,
      "ications": 8176,
      "piece": 8177,
      "struction": 8178,
      "singer": 8179,
      "Mont": 8180,
      "Ru": 8181,
      "critical": 8182,
      "Prince": 8183,
      "2016": 8184,
      "secur": 8185,
      "kind": 8186,
      "whole": 8187,
      "dev": 8188,
      "premi": 8189,
      "Not": 8190,
      "1996": 8191,
      "19th": 8192,
      "cere": 8193,
      "Group": 8194,
      "Out": 8195,
      "mom": 8196,
      "1950": 8197,
      "Fer": 8198,
      "ioned": 8199,
      "farm": 8200,
      "depression": 8201,
      "ski": 8202,
      "bio": 8203,
      "letter": 8204,
      "earned": 8205,
      "referred": 8206,
      "produce": 8207,
      "Empire": 8208,
      "vention": 8209,
      "Produ": 8210,
      "Penn": 8211,
      "amount": 8212,
      "vic": 8213,
      "Camp": 8214,
      "render": 8215,
      "selected": 8216,
      "umed": 8217,
      "Sto": 8218,
      "numbers": 8219,
      "Jose": 8220,
      "houses": 8221,
      "distin": 8222,
      "finally": 8223,
      "inch": 8224,
      "smaller": 8225,
      "chief": 8226,
      "revol": 8227,
      "resulted": 8228,
      "gain": 8229,
      "advan": 8230,
      "fighting": 8231,
      "bank": 8232,
      "grant": 8233,
      "captain": 8234,
      "Italian": 8235,
      "ellow": 8236,
      "celebr": 8237,
      "Gar": 8238,
      "slight": 8239,
      "1994": 8240,
      "industry": 8241,
      "bul": 8242,
      "unit": 8243,
      "wound": 8244,
      "largely": 8245,
      "words": 8246,
      "Sol": 8247,
      "jun": 8248,
      "DVD": 8249,
      "coup": 8250,
      "oil": 8251,
      "commented": 8252,
      "dol": 8253,
      "ordin": 8254,
      "gent": 8255,
      "ify": 8256,
      "ipp": 8257,
      "Eli": 8258,
      "Corps": 8259,
      "Crit": 8260,
      "55": 8261,
      "sched": 8262,
      "audience": 8263,
      "izing": 8264,
      "notes": 8265,
      "acting": 8266,
      "education": 8267,
      "ift": 8268,
      "unable": 8269,
      "traditional": 8270,
      "spl": 8271,
      "trade": 8272,
      "artist": 8273,
      "iff": 8274,
      "Rh": 8275,
      "imm": 8276,
      "legisl": 8277,
      "Long": 8278,
      "atest": 8279,
      "directly": 8280,
      "Final": 8281,
      "improve": 8282,
      "lif": 8283,
      "double": 8284,
      "sister": 8285,
      "blood": 8286,
      "attention": 8287,
      "lav": 8288,
      "Viet": 8289,
      "refused": 8290,
      "lock": 8291,
      "ows": 8292,
      "carri": 8293,
      "mos": 8294,
      "positions": 8295,
      "ump": 8296,
      "180": 8297,
      "method": 8298,
      "newsp": 8299,
      "web": 8300,
      "royal": 8301,
      "primary": 8302,
      "ighter": 8303,
      "Command": 8304,
      "horse": 8305,
      "secret": 8306,
      "dro": 8307,
      "aland": 8308,
      "Hel": 8309,
      "Michigan": 8310,
      "Er": 8311,
      "achi": 8312,
      "alle": 8313,
      "quarters": 8314,
      "spect": 8315,
      "hero": 8316,
      "male": 8317,
      "train": 8318,
      "gradu": 8319,
      "below": 8320,
      "officer": 8321,
      "Mass": 8322,
      "science": 8323,
      "declared": 8324,
      "utch": 8325,
      "install": 8326,
      "enjoy": 8327,
      "Wales": 8328,
      "hi": 8329,
      "meant": 8330,
      "performances": 8331,
      "Sar": 8332,
      "religious": 8333,
      "More": 8334,
      "standard": 8335,
      "indic": 8336,
      "44": 8337,
      "Cath": 8338,
      "Republic": 8339,
      "ray": 8340,
      "undred": 8341,
      "owned": 8342,
      "middle": 8343,
      "commander": 8344,
      "ady": 8345,
      "conflict": 8346,
      "Gi": 8347,
      "repe": 8348,
      "regard": 8349,
      "Ox": 8350,
      "pul": 8351,
      "matches": 8352,
      "orders": 8353,
      "mes": 8354,
      "va": 8355,
      "Sup": 8356,
      "oo": 8357,
      "Care": 8358,
      "wear": 8359,
      "model": 8360,
      "records": 8361,
      "Democr": 8362,
      "Acad": 8363,
      "rated": 8364,
      "ipal": 8365,
      "thr": 8366,
      "Team": 8367,
      "Lin": 8368,
      "ya": 8369,
      "ett": 8370,
      "progress": 8371,
      "uten": 8372,
      "district": 8373,
      "antasy": 8374,
      "competition": 8375,
      "kes": 8376,
      "serious": 8377,
      "die": 8378,
      "Lit": 8379,
      "ranch": 8380,
      "session": 8381,
      "Mem": 8382,
      "severe": 8383,
      "vocals": 8384,
      "oft": 8385,
      "viewers": 8386,
      "northeast": 8387,
      "Minister": 8388,
      "drum": 8389,
      "Several": 8390,
      "1992": 8391,
      "Major": 8392,
      "wick": 8393,
      "Tre": 8394,
      "bing": 8395,
      "document": 8396,
      "abandon": 8397,
      "Chris": 8398,
      "energy": 8399,
      "miral": 8400,
      "rapid": 8401,
      "orm": 8402,
      "centre": 8403,
      "cases": 8404,
      "arrow": 8405,
      "atre": 8406,
      "forest": 8407,
      "Fore": 8408,
      "cam": 8409,
      "65": 8410,
      "dut": 8411,
      "continue": 8412,
      "traff": 8413,
      "atal": 8414,
      "thes": 8415,
      "theme": 8416,
      "iled": 8417,
      "Sum": 8418,
      "Time": 8419,
      "Four": 8420,
      "determin": 8421,
      "Fox": 8422,
      "ona": 8423,
      "writers": 8424,
      "Soci": 8425,
      "itation": 8426,
      "Bre": 8427,
      "aware": 8428,
      "favour": 8429,
      "ishop": 8430,
      "nearby": 8431,
      "highly": 8432,
      "kin": 8433,
      "adult": 8434,
      "Zealand": 8435,
      "separate": 8436,
      "combat": 8437,
      "Wall": 8438,
      "arts": 8439,
      "urt": 8440,
      "metal": 8441,
      "culture": 8442,
      "Mexico": 8443,
      "umn": 8444,
      "effort": 8445,
      "incorpor": 8446,
      "presented": 8447,
      "attended": 8448,
      "omen": 8449,
      "osen": 8450,
      "African": 8451,
      "reduced": 8452,
      "annual": 8453,
      "edition": 8454,
      "Haw": 8455,
      "20th": 8456,
      "practice": 8457,
      "ogue": 8458,
      "log": 8459,
      "except": 8460,
      "rossing": 8461,
      "1930": 8462,
      "Dou": 8463,
      "Dar": 8464,
      "girl": 8465,
      "means": 8466,
      "rang": 8467,
      "neigh": 8468,
      "levels": 8469,
      "divided": 8470,
      "McC": 8471,
      "ria": 8472,
      "contact": 8473,
      "tried": 8474,
      "movie": 8475,
      "oud": 8476,
      "ands": 8477,
      "ole": 8478,
      "thick": 8479,
      "marriage": 8480,
      "twenty": 8481,
      "1993": 8482,
      "architect": 8483,
      "Madonna": 8484,
      "accepted": 8485,
      "stating": 8486,
      "Stone": 8487,
      "maxim": 8488,
      "1991": 8489,
      "400": 8490,
      "pick": 8491,
      "aired": 8492,
      "serve": 8493,
      "SA": 8494,
      "fru": 8495,
      "bled": 8496,
      "responsible": 8497,
      "Fed": 8498,
      "quality": 8499,
      "ding": 8500,
      "iding": 8501,
      "candid": 8502,
      "charge": 8503,
      "direction": 8504,
      "Scotland": 8505,
      "seem": 8506,
      "eve": 8507,
      "advance": 8508,
      "rating": 8509,
      "innings": 8510,
      "Jones": 8511,
      "95": 8512,
      "pret": 8513,
      "psy": 8514,
      "rein": 8515,
      "Moun": 8516,
      "schools": 8517,
      "pit": 8518,
      "Their": 8519,
      "ieve": 8520,
      "network": 8521,
      "wealth": 8522,
      "function": 8523,
      "rare": 8524,
      "Simp": 8525,
      "managed": 8526,
      "passing": 8527,
      "rif": 8528,
      "hus": 8529,
      "sides": 8530,
      "Book": 8531,
      "lan": 8532,
      "ression": 8533,
      "Tim": 8534,
      "award": 8535,
      "illery": 8536,
      "Greek": 8537,
      "Rol": 8538,
      "Department": 8539,
      "Ba": 8540,
      "efforts": 8541,
      "college": 8542,
      "ites": 8543,
      "da": 8544,
      "Fre": 8545,
      "economic": 8546,
      "paid": 8547,
      "meaning": 8548,
      "asion": 8549,
      "resulting": 8550,
      "zer": 8551,
      "dropped": 8552,
      "utenant": 8553,
      "iving": 8554,
      "dem": 8555,
      "showed": 8556,
      "Kar": 8557,
      "guest": 8558,
      "lam": 8559,
      "Infantry": 8560,
      "mountain": 8561,
      "hall": 8562,
      "Three": 8563,
      "Men": 8564,
      "cust": 8565,
      "environment": 8566,
      "inside": 8567,
      "dan": 8568,
      "murder": 8569,
      "bly": 8570,
      "Sur": 8571,
      "voy": 8572,
      "kept": 8573,
      "oon": 8574,
      "ram": 8575,
      "chap": 8576,
      "nest": 8577,
      "Americ": 8578,
      "allowing": 8579,
      "cin": 8580,
      "Games": 8581,
      "osaur": 8582,
      "ceremon": 8583,
      "Bost": 8584,
      "winter": 8585,
      "cyclone": 8586,
      "waters": 8587,
      "controver": 8588,
      "begins": 8589,
      "Mic": 8590,
      "Commit": 8591,
      "sec": 8592,
      "variety": 8593,
      "morning": 8594,
      "ceeded": 8595,
      "settle": 8596,
      "Hor": 8597,
      "Williams": 8598,
      "arrest": 8599,
      "electric": 8600,
      "thur": 8601,
      "Up": 8602,
      "schol": 8603,
      "ores": 8604,
      "Service": 8605,
      "BA": 8606,
      "cus": 8607,
      "inches": 8608,
      "peror": 8609,
      "ami": 8610,
      "pal": 8611,
      "airs": 8612,
      "Creek": 8613,
      "Alli": 8614,
      "titled": 8615,
      "Stan": 8616,
      "path": 8617,
      "Records": 8618,
      "activity": 8619,
      "Post": 8620,
      "Will": 8621,
      "write": 8622,
      "continues": 8623,
      "rule": 8624,
      "drew": 8625,
      "dance": 8626,
      "rot": 8627,
      "symb": 8628,
      "isation": 8629,
      "News": 8630,
      "squadron": 8631,
      "SR": 8632,
      "ky": 8633,
      "Parliament": 8634,
      "founded": 8635,
      "source": 8636,
      "broke": 8637,
      "aven": 8638,
      "restr": 8639,
      "Foot": 8640,
      "pitch": 8641,
      "Oh": 8642,
      "phere": 8643,
      "parents": 8644,
      "sole": 8645,
      "hundred": 8646,
      "ott": 8647,
      "starting": 8648,
      "Ire": 8649,
      "conducted": 8650,
      "your": 8651,
      "ounds": 8652,
      "Egy": 8653,
      "vised": 8654,
      "strugg": 8655,
      "excl": 8656,
      "concert": 8657,
      "Society": 8658,
      "78": 8659,
      "ada": 8660,
      "1942": 8661,
      "presence": 8662,
      "spot": 8663,
      "64": 8664,
      "Bridge": 8665,
      "Southern": 8666,
      "metres": 8667,
      "plat": 8668,
      "IS": 8669,
      "iced": 8670,
      "Sil": 8671,
      "crow": 8672,
      "exhib": 8673,
      "Sat": 8674,
      "Ram": 8675,
      "sequence": 8676,
      "selling": 8677,
      "eth": 8678,
      "things": 8679,
      "Ev": 8680,
      "sa": 8681,
      "multiple": 8682,
      "contrast": 8683,
      "Arthur": 8684,
      "portun": 8685,
      "transferred": 8686,
      "companies": 8687,
      "deliver": 8688,
      "Committee": 8689,
      "foreign": 8690,
      "Georg": 8691,
      "collection": 8692,
      "enemy": 8693,
      "Latin": 8694,
      "pedo": 8695,
      "peaked": 8696,
      "Hung": 8697,
      "Govern": 8698,
      "Captain": 8699,
      "Cross": 8700,
      "content": 8701,
      "onic": 8702,
      "obtain": 8703,
      "mess": 8704,
      "stories": 8705,
      "recomm": 8706,
      "Like": 8707,
      "Oxford": 8708,
      "traffic": 8709,
      "becomes": 8710,
      "hu": 8711,
      "account": 8712,
      "ita": 8713,
      "Far": 8714,
      "Admiral": 8715,
      "Joseph": 8716,
      "Chief": 8717,
      "greater": 8718,
      "scoring": 8719,
      "loy": 8720,
      "vocal": 8721,
      "thir": 8722,
      "Secret": 8723,
      "calling": 8724,
      "concluded": 8725,
      "Den": 8726,
      "ito": 8727,
      "PA": 8728,
      "sky": 8729,
      "Harrison": 8730,
      "potential": 8731,
      "41": 8732,
      "birds": 8733,
      "property": 8734,
      "Boston": 8735,
      "attempts": 8736,
      "relatively": 8737,
      "creation": 8738,
      "strength": 8739,
      "demonstr": 8740,
      "Manchester": 8741,
      "extens": 8742,
      "sets": 8743,
      "observed": 8744,
      "primarily": 8745,
      "federal": 8746,
      "bles": 8747,
      "76": 8748,
      "fa": 8749,
      "prise": 8750,
      "Class": 8751,
      "actually": 8752,
      "Egypt": 8753,
      "Because": 8754,
      "Before": 8755,
      "financial": 8756,
      "Jeff": 8757,
      "animals": 8758,
      "propos": 8759,
      "journal": 8760,
      "Swed": 8761,
      "Life": 8762,
      "figure": 8763,
      "Hurricane": 8764,
      "Ken": 8765,
      "anna": 8766,
      "Dire": 8767,
      "yer": 8768,
      "opportun": 8769,
      "42": 8770,
      "tourn": 8771,
      "anger": 8772,
      "identified": 8773,
      "olf": 8774,
      "Commission": 8775,
      "featuring": 8776,
      "repair": 8777,
      "Dun": 8778,
      "ange": 8779,
      "stein": 8780,
      "istics": 8781,
      "1944": 8782,
      "scale": 8783,
      "mechan": 8784,
      "Fred": 8785,
      "Little": 8786,
      "missed": 8787,
      "share": 8788,
      "85": 8789,
      "withdraw": 8790,
      "situation": 8791,
      "annel": 8792,
      "prov": 8793,
      "Gil": 8794,
      "distance": 8795,
      "Brad": 8796,
      "versions": 8797,
      "Battalion": 8798,
      "independent": 8799,
      "43": 8800,
      "passeng": 8801,
      "extreme": 8802,
      "poet": 8803,
      "Ann": 8804,
      "thous": 8805,
      "resist": 8806,
      "150": 8807,
      "Paris": 8808,
      "lap": 8809,
      "BBC": 8810,
      "collabor": 8811,
      "inking": 8812,
      "inte": 8813,
      "here": 8814,
      "faced": 8815,
      "slightly": 8816,
      "image": 8817,
      "Series": 8818,
      "suppl": 8819,
      "replac": 8820,
      "Ca": 8821,
      "Line": 8822,
      "Max": 8823,
      "Wal": 8824,
      "arms": 8825,
      "color": 8826,
      "cient": 8827,
      "concent": 8828,
      "mob": 8829,
      "perial": 8830,
      "colour": 8831,
      "prop": 8832,
      "Bat": 8833,
      "torpedo": 8834,
      "seconds": 8835,
      "today": 8836,
      "Pop": 8837,
      "1990": 8838,
      "Vol": 8839,
      "alleg": 8840,
      "resh": 8841,
      "vation": 8842,
      "trial": 8843,
      "completely": 8844,
      "square": 8845,
      "Light": 8846,
      "Croat": 8847,
      "ultimately": 8848,
      "pack": 8849,
      "proved": 8850,
      "behav": 8851,
      "ki": 8852,
      "confirmed": 8853,
      "Histor": 8854,
      "maximum": 8855,
      "struck": 8856,
      "Gir": 8857,
      "beth": 8858,
      "blue": 8859,
      "tellig": 8860,
      "cher": 8861,
      "Stephen": 8862,
      "Academy": 8863,
      "master": 8864,
      "sought": 8865,
      "cities": 8866,
      "1920": 8867,
      "1945": 8868,
      "green": 8869,
      "policy": 8870,
      "boat": 8871,
      "dise": 8872,
      "weather": 8873,
      "serving": 8874,
      "society": 8875,
      "Museum": 8876,
      "Way": 8877,
      "minim": 8878,
      "Saint": 8879,
      "combined": 8880,
      "mainly": 8881,
      "HL": 8882,
      "commissioned": 8883,
      "din": 8884,
      "designated": 8885,
      "naval": 8886,
      "1941": 8887,
      "explained": 8888,
      "astic": 8889,
      "officials": 8890,
      "northwest": 8891,
      "conver": 8892,
      "influenced": 8893,
      "benef": 8894,
      "border": 8895,
      "ils": 8896,
      "eval": 8897,
      "vessel": 8898,
      "Entertainment": 8899,
      "powerful": 8900,
      "Italy": 8901,
      "illa": 8902,
      "Lee": 8903,
      "Ob": 8904,
      "batter": 8905,
      "Week": 8906,
      "alongside": 8907,
      "resol": 8908,
      "ses": 8909,
      "visions": 8910,
      "older": 8911,
      "CA": 8912,
      "Brigade": 8913,
      "ulations": 8914,
      "gained": 8915,
      "orses": 8916,
      "Americans": 8917,
      "lip": 8918,
      "sources": 8919,
      "systems": 8920,
      "Spr": 8921,
      "attend": 8922,
      "Arab": 8923,
      "battleship": 8924,
      "Hy": 8925,
      "says": 8926,
      "Han": 8927,
      "princ": 8928,
      "successfully": 8929,
      "ini": 8930,
      "organization": 8931,
      "seek": 8932,
      "background": 8933,
      "industri": 8934,
      "gency": 8935,
      "aga": 8936,
      "feed": 8937,
      "99": 8938,
      "adel": 8939,
      "peace": 8940,
      "goti": 8941,
      "Tod": 8942,
      "theory": 8943,
      "capture": 8944,
      "seg": 8945,
      "ota": 8946,
      "aling": 8947,
      "alone": 8948,
      "nominated": 8949,
      "ements": 8950,
      "artists": 8951,
      "bud": 8952,
      "edge": 8953,
      "reaching": 8954,
      "stay": 8955,
      "news": 8956,
      "encour": 8957,
      "dif": 8958,
      "problem": 8959,
      "Regiment": 8960,
      "elve": 8961,
      "promoted": 8962,
      "widely": 8963,
      "bass": 8964,
      "sust": 8965,
      "CD": 8966,
      "iano": 8967,
      "mond": 8968,
      "Middle": 8969,
      "SS": 8970,
      "results": 8971,
      "sexual": 8972,
      "husband": 8973,
      "Ireland": 8974,
      "Live": 8975,
      "Avenue": 8976,
      "travel": 8977,
      "smo": 8978,
      "acu": 8979,
      "brary": 8980,
      "Fleet": 8981,
      "vania": 8982,
      "albums": 8983,
      "offer": 8984,
      "subsequent": 8985,
      "Land": 8986,
      "greatest": 8987,
      "Mu": 8988,
      "roads": 8989,
      "IV": 8990,
      "Bor": 8991,
      "Ray": 8992,
      "invasion": 8993,
      "ols": 8994,
      "Os": 8995,
      "Otto": 8996,
      "officially": 8997,
      "1989": 8998,
      "tun": 8999,
      "fair": 9000,
      "affected": 9001,
      "sixth": 9002,
      "county": 9003,
      "Wind": 9004,
      "opin": 9005,
      "push": 9006,
      "southeast": 9007,
      "spring": 9008,
      "pilot": 9009,
      "1943": 9010,
      "shortly": 9011,
      "Lie": 9012,
      "theless": 9013,
      "contest": 9014,
      "true": 9015,
      "expressed": 9016,
      "shell": 9017,
      "MD": 9018,
      "Common": 9019,
      "appearances": 9020,
      "armed": 9021,
      "doing": 9022,
      "reception": 9023,
      "causing": 9024,
      "Mah": 9025,
      "mind": 9026,
      "represented": 9027,
      "Ry": 9028,
      "arent": 9029,
      "aded": 9030,
      "Victoria": 9031,
      "sense": 9032,
      "organized": 9033,
      "physical": 9034,
      "gi": 9035,
      "capac": 9036,
      "Catholic": 9037,
      "residents": 9038,
      "defense": 9039,
      "pieces": 9040,
      "teach": 9041,
      "core": 9042,
      "tells": 9043,
      "dog": 9044,
      "Tropical": 9045,
      "arian": 9046,
      "ansion": 9047,
      "syl": 9048,
      "Bus": 9049,
      "seasons": 9050,
      "600": 9051,
      "Valley": 9052,
      "itude": 9053,
      "intend": 9054,
      "laid": 9055,
      "negoti": 9056,
      "ategory": 9057,
      "rey": 9058,
      "semb": 9059,
      "hospital": 9060,
      "growth": 9061,
      "Ash": 9062,
      "kg": 9063,
      "ufact": 9064,
      "bodies": 9065,
      "avoid": 9066,
      "icient": 9067,
      "require": 9068,
      "actors": 9069,
      "Dutch": 9070,
      "pun": 9071,
      "Top": 9072,
      "77": 9073,
      "floor": 9074,
      "Show": 9075,
      "ached": 9076,
      "Though": 9077,
      "iron": 9078,
      "chair": 9079,
      "focus": 9080,
      "visited": 9081,
      "3rd": 9082,
      "fired": 9083,
      "Commun": 9084,
      "fellow": 9085,
      "plement": 9086,
      "inson": 9087,
      "arg": 9088,
      "atures": 9089,
      "advant": 9090,
      "eas": 9091,
      "artillery": 9092,
      "ahead": 9093,
      "weapons": 9094,
      "Football": 9095,
      "Good": 9096,
      "dition": 9097,
      "vote": 9098,
      "Rog": 9099,
      "ares": 9100,
      "Through": 9101,
      "oul": 9102,
      "Kenn": 9103,
      "usual": 9104,
      "Hum": 9105,
      "Jul": 9106,
      "question": 9107,
      "ysis": 9108,
      "eigh": 9109,
      "Gal": 9110,
      "marine": 9111,
      "Tay": 9112,
      "Young": 9113,
      "leaders": 9114,
      "Sub": 9115,
      "Well": 9116,
      "heavily": 9117,
      "Upon": 9118,
      "ote": 9119,
      "Mountain": 9120,
      "ingu": 9121,
      "phil": 9122,
      "1980s": 9123,
      "pedition": 9124,
      "1940": 9125,
      "anta": 9126,
      "spread": 9127,
      "student": 9128,
      "ronic": 9129,
      "apparent": 9130,
      "wave": 9131,
      "governor": 9132,
      "ustr": 9133,
      "studies": 9134,
      "Bul": 9135,
      "patter": 9136,
      "amber": 9137,
      "passes": 9138,
      "Def": 9139,
      "ici": 9140,
      "Ele": 9141,
      "sions": 9142,
      "executive": 9143,
      "protest": 9144,
      "mile": 9145,
      "Ill": 9146,
      "agreement": 9147,
      "catch": 9148,
      "Bey": 9149,
      "Daniel": 9150,
      "debuted": 9151,
      "cip": 9152,
      "table": 9153,
      "kilomet": 9154,
      "rical": 9155,
      "condition": 9156,
      "prominent": 9157,
      "setting": 9158,
      "instrument": 9159,
      "consisted": 9160,
      "injury": 9161,
      "figures": 9162,
      "begin": 9163,
      "ights": 9164,
      "wit": 9165,
      "Home": 9166,
      "equipment": 9167,
      "earth": 9168,
      "claims": 9169,
      "Of": 9170,
      "matter": 9171,
      "graphic": 9172,
      "negative": 9173,
      "believ": 9174,
      "necessary": 9175,
      "transl": 9176,
      "defend": 9177,
      "66": 9178,
      "argued": 9179,
      "sn": 9180,
      "preser": 9181,
      "Eliza": 9182,
      "otes": 9183,
      "Tele": 9184,
      "arden": 9185,
      "glo": 9186,
      "rick": 9187,
      "urban": 9188,
      "omy": 9189,
      "dated": 9190,
      "gal": 9191,
      "normal": 9192,
      "opposed": 9193,
      "Homer": 9194,
      "Civil": 9195,
      "Jon": 9196,
      "returning": 9197,
      "lic": 9198,
      "istrict": 9199,
      "contemporary": 9200,
      "ani": 9201,
      "1970s": 9202,
      "pict": 9203,
      "rig": 9204,
      "Ly": 9205,
      "ube": 9206,
      "Northern": 9207,
      "Main": 9208,
      "famous": 9209,
      "mut": 9210,
      "maintained": 9211,
      "deg": 9212,
      "kick": 9213,
      "frequently": 9214,
      "Pen": 9215,
      "1960s": 9216,
      "couple": 9217,
      "types": 9218,
      "paper": 9219,
      "aces": 9220,
      "acher": 9221,
      "stations": 9222,
      "Ha": 9223,
      "von": 9224,
      "Dev": 9225,
      "vor": 9226,
      "ockey": 9227,
      "god": 9228,
      "mann": 9229,
      "deck": 9230,
      "finish": 9231,
      "speech": 9232,
      "Tem": 9233,
      "District": 9234,
      "rect": 9235,
      "rum": 9236,
      "zy": 9237,
      "criticized": 9238,
      "activities": 9239,
      "TC": 9240,
      "Marsh": 9241,
      "heard": 9242,
      "machine": 9243,
      "Carolina": 9244,
      "folk": 9245,
      "Bond": 9246,
      "Ocean": 9247,
      "drug": 9248,
      "toward": 9249,
      "acts": 9250,
      "citiz": 9251,
      "occasion": 9252,
      "discuss": 9253,
      "tournament": 9254,
      "planet": 9255,
      "reference": 9256,
      "gam": 9257,
      "reign": 9258,
      "trees": 9259,
      "singles": 9260,
      "coal": 9261,
      "else": 9262,
      "ledge": 9263,
      "operated": 9264,
      "lers": 9265,
      "1987": 9266,
      "senior": 9267,
      "Scottish": 9268,
      "eway": 9269,
      "System": 9270,
      "medical": 9271,
      "AC": 9272,
      "aspect": 9273,
      "ano": 9274,
      "worldwide": 9275,
      "achieve": 9276,
      "ker": 9277,
      "territory": 9278,
      "trying": 9279,
      "Writ": 9280,
      "value": 9281,
      "eye": 9282,
      "Government": 9283,
      "1988": 9284,
      "awa": 9285,
      "Holly": 9286,
      "Fantasy": 9287,
      "Governor": 9288,
      "modif": 9289,
      "narr": 9290,
      "Colon": 9291,
      "holds": 9292,
      "Castle": 9293,
      "ette": 9294,
      "horses": 9295,
      "Jud": 9296,
      "Field": 9297,
      "gate": 9298,
      "Kr": 9299,
      "Operation": 9300,
      "hands": 9301,
      "Background": 9302,
      "imen": 9303,
      "treatment": 9304,
      "zed": 9305,
      "historian": 9306,
      "sembly": 9307,
      "stre": 9308,
      "views": 9309,
      "rainfall": 9310,
      "accident": 9311,
      "96": 9312,
      "shap": 9313,
      "looking": 9314,
      "university": 9315,
      "split": 9316,
      "crash": 9317,
      "therefore": 9318,
      "honor": 9319,
      "supply": 9320,
      "leaves": 9321,
      "grew": 9322,
      "challeng": 9323,
      "ij": 9324,
      "Duke": 9325,
      "Hard": 9326,
      "gian": 9327,
      "chosen": 9328,
      "championship": 9329,
      "assault": 9330,
      "Short": 9331,
      "mn": 9332,
      "ressed": 9333,
      "shore": 9334,
      "incident": 9335,
      "Studios": 9336,
      "twice": 9337,
      "rael": 9338,
      "cance": 9339,
      "Polish": 9340,
      "walls": 9341,
      "Lew": 9342,
      "Rod": 9343,
      "reports": 9344,
      "Bell": 9345,
      "stood": 9346,
      "Dam": 9347,
      "heads": 9348,
      "esc": 9349,
      "asket": 9350,
      "Mul": 9351,
      "consecut": 9352,
      "Senate": 9353,
      "escape": 9354,
      "offensive": 9355,
      "cou": 9356,
      "velopment": 9357,
      "teenth": 9358,
      "acted": 9359,
      "Eastern": 9360,
      "billion": 9361,
      "follows": 9362,
      "soundtrack": 9363,
      "Andrew": 9364,
      "stock": 9365,
      "pton": 9366,
      "rane": 9367,
      "manufact": 9368,
      "prompt": 9369,
      "launch": 9370,
      "editor": 9371,
      "street": 9372,
      "oting": 9373,
      "workers": 9374,
      "pursu": 9375,
      "schedul": 9376,
      "wounded": 9377,
      "edom": 9378,
      "surrounding": 9379,
      "steam": 9380,
      "contained": 9381,
      "ucky": 9382,
      "decre": 9383,
      "degree": 9384,
      "fuel": 9385,
      "wart": 9386,
      "herself": 9387,
      "Christmas": 9388,
      "typically": 9389,
      "bat": 9390,
      "Pennsyl": 9391,
      "WW": 9392,
      "Beat": 9393,
      "servation": 9394,
      "uth": 9395,
      "Wel": 9396,
      "tail": 9397,
      "symp": 9398,
      "Allied": 9399,
      "Columb": 9400,
      "Mean": 9401,
      "fiction": 9402,
      "lives": 9403,
      "cies": 9404,
      "Corn": 9405,
      "simply": 9406,
      "Wilson": 9407,
      "unknown": 9408,
      "rival": 9409,
      "ager": 9410,
      "ifying": 9411,
      "Tech": 9412,
      "element": 9413,
      "railway": 9414,
      "emphas": 9415,
      "dete": 9416,
      "regarded": 9417,
      "oration": 9418,
      "Taylor": 9419,
      "56": 9420,
      "chance": 9421,
      "Joe": 9422,
      "1986": 9423,
      "drive": 9424,
      "aud": 9425,
      "chose": 9426,
      "Down": 9427,
      "consecutive": 9428,
      "nothing": 9429,
      "Alexander": 9430,
      "authority": 9431,
      "currently": 9432,
      "Each": 9433,
      "cannot": 9434,
      "adapt": 9435,
      "Fam": 9436,
      "yle": 9437,
      "growing": 9438,
      "Blue": 9439,
      "brown": 9440,
      "newly": 9441,
      "cited": 9442,
      "tree": 9443,
      "spirit": 9444,
      "throw": 9445,
      "participated": 9446,
      "isters": 9447,
      "website": 9448,
      "mentioned": 9449,
      "casual": 9450,
      "creating": 9451,
      "grade": 9452,
      "Bon": 9453,
      "broken": 9454,
      "producers": 9455,
      "newspaper": 9456,
      "roof": 9457,
      "Ret": 9458,
      "compar": 9459,
      "risk": 9460,
      "experiment": 9461,
      "boats": 9462,
      "capacity": 9463,
      "extra": 9464,
      "losing": 9465,
      "firm": 9466,
      "advert": 9467,
      "Festival": 9468,
      "disp": 9469,
      "adopted": 9470,
      "filming": 9471,
      "advanced": 9472,
      "Sound": 9473,
      "ilies": 9474,
      "What": 9475,
      "clo": 9476,
      "Storm": 9477,
      "moment": 9478,
      "strike": 9479,
      "oppon": 9480,
      "Pennsylvania": 9481,
      "err": 9482,
      "door": 9483,
      "Night": 9484,
      "opposition": 9485,
      "initi": 9486,
      "imag": 9487,
      "ables": 9488,
      "Head": 9489,
      "basis": 9490,
      "Chart": 9491,
      "Bol": 9492,
      "oppos": 9493,
      "council": 9494,
      "Islands": 9495,
      "azz": 9496,
      "wel": 9497,
      "Liber": 9498,
      "sites": 9499,
      "uce": 9500,
      "chor": 9501,
      "plants": 9502,
      "aved": 9503,
      "58": 9504,
      "calls": 9505,
[...]
